#include "model.hpp"


alignas(8) const unsigned char gmodel_tflite[] = {
 0x1c, 0x00, 0x00, 0x00, 0x54, 0x46, 0x4c, 0x33, 0x14, 0x00, 0x20, 0x00, 
 0x1c, 0x00, 0x18, 0x00, 0x14, 0x00, 0x10, 0x00, 0x0c, 0x00, 0x00, 0x00, 
 0x08, 0x00, 0x04, 0x00, 0x14, 0x00, 0x00, 0x00, 0x1c, 0x00, 0x00, 0x00, 
 0x90, 0x00, 0x00, 0x00, 0xe8, 0x00, 0x00, 0x00, 0x08, 0x08, 0x00, 0x00, 
 0x18, 0x08, 0x00, 0x00, 0xd4, 0x0d, 0x00, 0x00, 0x03, 0x00, 0x00, 0x00, 
 0x01, 0x00, 0x00, 0x00, 0x10, 0x00, 0x00, 0x00, 0x00, 0x00, 0x0a, 0x00, 
 0x10, 0x00, 0x0c, 0x00, 0x08, 0x00, 0x04, 0x00, 0x0a, 0x00, 0x00, 0x00, 
 0x0c, 0x00, 0x00, 0x00, 0x1c, 0x00, 0x00, 0x00, 0x38, 0x00, 0x00, 0x00, 
 0x0f, 0x00, 0x00, 0x00, 0x73, 0x65, 0x72, 0x76, 0x69, 0x6e, 0x67, 0x5f, 
 0x64, 0x65, 0x66, 0x61, 0x75, 0x6c, 0x74, 0x00, 0x01, 0x00, 0x00, 0x00, 
 0x04, 0x00, 0x00, 0x00, 0x98, 0xff, 0xff, 0xff, 0x0a, 0x00, 0x00, 0x00, 
 0x04, 0x00, 0x00, 0x00, 0x07, 0x00, 0x00, 0x00, 0x64, 0x65, 0x6e, 0x73, 
 0x65, 0x5f, 0x32, 0x00, 0x01, 0x00, 0x00, 0x00, 0x04, 0x00, 0x00, 0x00, 
 0xda, 0xf7, 0xff, 0xff, 0x04, 0x00, 0x00, 0x00, 0x0b, 0x00, 0x00, 0x00, 
 0x64, 0x65, 0x6e, 0x73, 0x65, 0x5f, 0x69, 0x6e, 0x70, 0x75, 0x74, 0x00, 
 0x02, 0x00, 0x00, 0x00, 0x34, 0x00, 0x00, 0x00, 0x04, 0x00, 0x00, 0x00, 
 0xdc, 0xff, 0xff, 0xff, 0x0d, 0x00, 0x00, 0x00, 0x04, 0x00, 0x00, 0x00, 
 0x13, 0x00, 0x00, 0x00, 0x43, 0x4f, 0x4e, 0x56, 0x45, 0x52, 0x53, 0x49, 
 0x4f, 0x4e, 0x5f, 0x4d, 0x45, 0x54, 0x41, 0x44, 0x41, 0x54, 0x41, 0x00, 
 0x08, 0x00, 0x0c, 0x00, 0x08, 0x00, 0x04, 0x00, 0x08, 0x00, 0x00, 0x00, 
 0x0c, 0x00, 0x00, 0x00, 0x04, 0x00, 0x00, 0x00, 0x13, 0x00, 0x00, 0x00, 
 0x6d, 0x69, 0x6e, 0x5f, 0x72, 0x75, 0x6e, 0x74, 0x69, 0x6d, 0x65, 0x5f, 
 0x76, 0x65, 0x72, 0x73, 0x69, 0x6f, 0x6e, 0x00, 0x0e, 0x00, 0x00, 0x00, 
 0x1c, 0x07, 0x00, 0x00, 0x14, 0x07, 0x00, 0x00, 0xe4, 0x06, 0x00, 0x00, 
 0xc8, 0x06, 0x00, 0x00, 0x78, 0x06, 0x00, 0x00, 0x28, 0x03, 0x00, 0x00, 
 0x18, 0x01, 0x00, 0x00, 0xa8, 0x00, 0x00, 0x00, 0xa0, 0x00, 0x00, 0x00, 
 0x98, 0x00, 0x00, 0x00, 0x90, 0x00, 0x00, 0x00, 0x88, 0x00, 0x00, 0x00, 
 0x68, 0x00, 0x00, 0x00, 0x04, 0x00, 0x00, 0x00, 0x8a, 0xf8, 0xff, 0xff, 
 0x04, 0x00, 0x00, 0x00, 0x54, 0x00, 0x00, 0x00, 0x0c, 0x00, 0x00, 0x00, 
 0x08, 0x00, 0x0e, 0x00, 0x08, 0x00, 0x04, 0x00, 0x08, 0x00, 0x00, 0x00, 
 0x10, 0x00, 0x00, 0x00, 0x24, 0x00, 0x00, 0x00, 0x00, 0x00, 0x06, 0x00, 
 0x08, 0x00, 0x04, 0x00, 0x06, 0x00, 0x00, 0x00, 0x04, 0x00, 0x00, 0x00, 
 0x00, 0x00, 0x00, 0x00, 0x00, 0x00, 0x0a, 0x00, 0x10, 0x00, 0x0c, 0x00, 
 0x08, 0x00, 0x04, 0x00, 0x0a, 0x00, 0x00, 0x00, 0x02, 0x00, 0x00, 0x00, 
 0x02, 0x00, 0x00, 0x00, 0x04, 0x00, 0x00, 0x00, 0x06, 0x00, 0x00, 0x00, 
 0x32, 0x2e, 0x31, 0x33, 0x2e, 0x30, 0x00, 0x00, 0xea, 0xf8, 0xff, 0xff, 
 0x04, 0x00, 0x00, 0x00, 0x10, 0x00, 0x00, 0x00, 0x31, 0x2e, 0x35, 0x2e, 
 0x30, 0x00, 0x00, 0x00, 0x00, 0x00, 0x00, 0x00, 0x00, 0x00, 0x00, 0x00, 
 0xf8, 0xf3, 0xff, 0xff, 0xfc, 0xf3, 0xff, 0xff, 0x00, 0xf4, 0xff, 0xff, 
 0x04, 0xf4, 0xff, 0xff, 0x16, 0xf9, 0xff, 0xff, 0x04, 0x00, 0x00, 0x00, 
 0x60, 0x00, 0x00, 0x00, 0x3b, 0xa0, 0x69, 0x3f, 0x4c, 0xee, 0xf2, 0xbf, 
 0xcf, 0xb2, 0x80, 0xbf, 0x2a, 0x9d, 0x6e, 0xbd, 0x70, 0x87, 0x17, 0xc0, 
 0xea, 0x27, 0x43, 0xbf, 0x76, 0x3f, 0x65, 0x40, 0x9b, 0x98, 0xb5, 0xbf, 
 0x0f, 0x5e, 0x38, 0x3f, 0x50, 0x94, 0xc2, 0xbd, 0x66, 0xb4, 0x81, 0xbf, 
 0x82, 0x7d, 0xf2, 0xbe, 0xb5, 0x23, 0xec, 0x3e, 0x69, 0x73, 0x9a, 0xbf, 
 0x14, 0x7d, 0x51, 0xc0, 0x1d, 0xcd, 0x48, 0xbf, 0x4b, 0xec, 0xc7, 0xbf, 
 0x0a, 0xf4, 0x8a, 0x3e, 0x83, 0x12, 0xbe, 0x3f, 0xf1, 0xe8, 0xe0, 0xbf, 
 0xf0, 0x6d, 0x45, 0x3d, 0xec, 0xb4, 0xc1, 0x3f, 0x78, 0xd4, 0x37, 0xbf, 
 0x52, 0x3e, 0xeb, 0x3f, 0x82, 0xf9, 0xff, 0xff, 0x04, 0x00, 0x00, 0x00, 
 0x00, 0x02, 0x00, 0x00, 0xbf, 0xbb, 0xac, 0x3d, 0x7d, 0xba, 0x99, 0x3f, 
 0xb6, 0xcc, 0xe7, 0xbd, 0xeb, 0xed, 0x26, 0x40, 0x34, 0x45, 0xe2, 0x3e, 
 0xdd, 0x07, 0x0f, 0x3f, 0x8d, 0x66, 0x1b, 0xbf, 0xc8, 0x71, 0xb0, 0x3e, 
 0xce, 0x03, 0xa8, 0x3c, 0xdb, 0xf3, 0xe4, 0x3d, 0x15, 0x97, 0xd8, 0x3f, 
 0x5a, 0x11, 0x17, 0x3e, 0x4b, 0x7c, 0x18, 0x3f, 0x0c, 0xf7, 0x82, 0x3f, 
 0x8f, 0xc1, 0xe6, 0xbe, 0x9d, 0x27, 0xed, 0xbe, 0x25, 0x79, 0x06, 0x3f, 
 0x85, 0xbe, 0xf8, 0xbe, 0xfd, 0xb0, 0x72, 0x3f, 0x52, 0xae, 0x69, 0xbf, 
 0x24, 0x60, 0x22, 0xbf, 0x75, 0xb3, 0x20, 0x3f, 0x76, 0x05, 0x78, 0x3e, 
 0x37, 0x6f, 0x08, 0xbe, 0xa0, 0x64, 0x50, 0xbe, 0xf9, 0x43, 0xce, 0xbe, 
 0x23, 0xc4, 0x43, 0xbf, 0x3a, 0xd7, 0x73, 0xbd, 0x57, 0x58, 0x0d, 0x3d, 
 0xec, 0x24, 0x05, 0xbf, 0xaa, 0x6c, 0xb4, 0xbe, 0xcf, 0x0c, 0x6e, 0x3f, 
 0x36, 0x46, 0x07, 0xbf, 0x95, 0x7b, 0xd9, 0xbe, 0x9e, 0x16, 0x58, 0x3f, 
 0xdd, 0xb2, 0xb2, 0xbf, 0x04, 0x35, 0x35, 0xbb, 0xd2, 0xa6, 0x0e, 0x3e, 
 0xd5, 0x34, 0x10, 0x3f, 0x66, 0xd8, 0x92, 0xbe, 0x63, 0x5c, 0xf9, 0xbe, 
 0xd7, 0xc6, 0xa7, 0x3e, 0x9b, 0xa0, 0x67, 0xbf, 0x64, 0x2e, 0x82, 0xbe, 
 0x67, 0x28, 0x48, 0xbe, 0xd8, 0x3e, 0xa1, 0xbe, 0xcf, 0x8a, 0x9d, 0x3c, 
 0xb1, 0x5d, 0x6b, 0xbb, 0xbb, 0xc9, 0x5b, 0xbe, 0xb0, 0xd5, 0x95, 0x3f, 
 0x97, 0x80, 0x47, 0xbf, 0x1c, 0x1c, 0x80, 0x3f, 0x40, 0xe2, 0x03, 0xbf, 
 0xe3, 0xb9, 0x60, 0x3f, 0xe5, 0x1f, 0x83, 0xbf, 0x2d, 0x42, 0xa5, 0x3e, 
 0x1c, 0x23, 0x04, 0xbe, 0x52, 0xd2, 0x27, 0x3e, 0xc1, 0xe1, 0xf1, 0xbe, 
 0x2f, 0x60, 0x8d, 0x3e, 0x74, 0x4c, 0x9e, 0x3e, 0x7a, 0x05, 0x31, 0xbf, 
 0xeb, 0xf3, 0x37, 0xbe, 0x0c, 0xa5, 0x6a, 0xbe, 0xd6, 0x5a, 0x02, 0x3f, 
 0x33, 0x7d, 0xc5, 0xbe, 0x6a, 0x2e, 0x72, 0x3f, 0x29, 0x4f, 0x76, 0xbf, 
 0x06, 0xf3, 0xce, 0x3e, 0x2a, 0x13, 0xf1, 0x3d, 0x81, 0x70, 0x4b, 0x3c, 
 0x38, 0xf5, 0xc2, 0x3e, 0x40, 0xb7, 0x4a, 0xbe, 0x64, 0x23, 0xa2, 0x3f, 
 0xf3, 0x1e, 0xab, 0xbe, 0x8e, 0x46, 0xa5, 0xbe, 0x35, 0x58, 0x3f, 0x3f, 
 0x0e, 0x52, 0x28, 0x3d, 0x7e, 0x4e, 0xc0, 0xbd, 0x71, 0x29, 0x27, 0x3f, 
 0x3d, 0x90, 0xab, 0x3e, 0xaa, 0x6b, 0x29, 0xbf, 0x81, 0x9f, 0x42, 0x3f, 
 0x6b, 0x36, 0x04, 0xc0, 0xb5, 0x10, 0x01, 0xbf, 0xe5, 0x19, 0xaf, 0x3d, 
 0x24, 0xdd, 0xf3, 0x3e, 0x81, 0x83, 0x02, 0xbf, 0x4e, 0xf3, 0x0e, 0x3f, 
 0xd9, 0xa9, 0xb0, 0x3e, 0xf1, 0x85, 0x82, 0xbf, 0x77, 0x96, 0x45, 0xbf, 
 0xea, 0x1c, 0x1f, 0xbf, 0xf7, 0x97, 0x1e, 0xbf, 0xff, 0x9b, 0xc1, 0x3e, 
 0xa8, 0xf1, 0xea, 0x3e, 0xa4, 0x2e, 0xaa, 0xbe, 0xce, 0x48, 0x8e, 0x3e, 
 0x57, 0xcd, 0x01, 0xbf, 0x0d, 0x3c, 0xd5, 0x3f, 0xdb, 0xe3, 0x8f, 0xbd, 
 0xec, 0x75, 0x6f, 0xbe, 0xd7, 0x8c, 0x13, 0xbf, 0x9a, 0x20, 0x38, 0x3e, 
 0xea, 0x6b, 0x6f, 0xbc, 0x49, 0x21, 0xe3, 0xbf, 0x07, 0xb0, 0x90, 0x3f, 
 0x8d, 0xa8, 0xd9, 0x3c, 0x10, 0x41, 0xe3, 0x3e, 0xb0, 0xb3, 0x3c, 0x3f, 
 0x96, 0x98, 0xe2, 0x3d, 0x48, 0x00, 0x66, 0xbf, 0x3c, 0xbb, 0xda, 0xbe, 
 0x35, 0x33, 0x67, 0xbf, 0x58, 0xec, 0x3e, 0x3f, 0x20, 0xf0, 0xb2, 0xbf, 
 0xf4, 0x26, 0xe5, 0xbe, 0x83, 0x3e, 0x00, 0xbf, 0x00, 0xaa, 0x2b, 0x3f, 
 0x9f, 0x53, 0x1b, 0xbf, 0x24, 0x01, 0x43, 0x3f, 0x05, 0x1b, 0xc8, 0x3e, 
 0x54, 0x63, 0xa2, 0xbf, 0xd9, 0x9b, 0x61, 0xbf, 0x32, 0x76, 0xef, 0x3e, 
 0x74, 0x01, 0xc5, 0xbe, 0x9e, 0xbb, 0x01, 0x3f, 0x88, 0xed, 0x4f, 0x3e, 
 0x8e, 0xfb, 0xff, 0xff, 0x04, 0x00, 0x00, 0x00, 0x40, 0x03, 0x00, 0x00, 
 0xe7, 0x24, 0x9e, 0xbe, 0xfc, 0x3b, 0x9e, 0x3e, 0x60, 0x00, 0x32, 0x3d, 
 0xcc, 0x87, 0x97, 0xbe, 0xab, 0x51, 0xbd, 0xbe, 0xe7, 0x18, 0xf8, 0xbe, 
 0x9d, 0xcc, 0x66, 0x3e, 0x3e, 0x96, 0xb6, 0x3e, 0x38, 0x0b, 0xc8, 0x3e, 
 0x33, 0x61, 0xc7, 0x3e, 0xad, 0xca, 0x8e, 0x3e, 0x27, 0x44, 0x6f, 0x3e, 
 0x49, 0x55, 0x0e, 0xbe, 0xe6, 0x39, 0xa8, 0x3d, 0xf7, 0xa6, 0x32, 0x3d, 
 0x3b, 0x27, 0xf1, 0x3d, 0x17, 0x4d, 0x32, 0xbf, 0xcc, 0x30, 0x81, 0x3e, 
 0x8e, 0xee, 0x1a, 0xbf, 0x88, 0x85, 0xf4, 0xbe, 0xa7, 0xbd, 0x96, 0xbe, 
 0xc7, 0x18, 0xfb, 0xbe, 0x82, 0x0e, 0x2f, 0xbf, 0x51, 0xf4, 0x2f, 0xbf, 
 0x4d, 0x3d, 0xaa, 0xbe, 0x2f, 0x56, 0x1f, 0xbc, 0x6a, 0x1a, 0x5e, 0x3e, 
 0x86, 0xe2, 0x60, 0xbe, 0x80, 0x5e, 0x00, 0xbe, 0x45, 0x00, 0xfe, 0x3e, 
 0x22, 0x41, 0x8f, 0x3f, 0x5b, 0x2c, 0x52, 0x3f, 0x70, 0x9f, 0x43, 0x3e, 
 0x7c, 0x2f, 0x23, 0x3e, 0x68, 0x96, 0x52, 0x3e, 0x35, 0x36, 0x5f, 0x3e, 
 0xa1, 0x19, 0x0c, 0x3f, 0x3b, 0x31, 0x07, 0xbf, 0xa0, 0x8d, 0x4d, 0x3f, 
 0xd1, 0x27, 0xa2, 0x3c, 0xae, 0x33, 0x01, 0x3e, 0x6c, 0xb3, 0x78, 0x3f, 
 0x1f, 0xf5, 0xac, 0xbe, 0xe6, 0xa9, 0xb7, 0xbd, 0x02, 0xfe, 0x1d, 0xbe, 
 0x80, 0x53, 0x5c, 0xbe, 0x2f, 0xe8, 0xc3, 0xbe, 0xab, 0x29, 0x8e, 0xbe, 
 0x59, 0x41, 0x8c, 0xbe, 0xa4, 0x57, 0x47, 0xbe, 0x35, 0xd5, 0xda, 0xbd, 
 0x37, 0x12, 0xb2, 0xbd, 0xd6, 0xd2, 0x0d, 0xbe, 0xd1, 0x22, 0xc8, 0x3d, 
 0x9c, 0xe6, 0x34, 0x3f, 0x21, 0xea, 0x41, 0xbe, 0xfe, 0x30, 0x02, 0x3e, 
 0x54, 0xb1, 0x8e, 0x3e, 0x25, 0x09, 0x01, 0xbe, 0x86, 0x7f, 0x0b, 0xbd, 
 0xad, 0xcc, 0x87, 0xbe, 0xa0, 0x3e, 0xa9, 0x3e, 0x1b, 0x7c, 0xb8, 0x3e, 
 0x8e, 0x68, 0x8c, 0xbe, 0x49, 0x41, 0xe4, 0xbe, 0xfc, 0xf5, 0x89, 0xbd, 
 0x2f, 0xd6, 0xe6, 0x3e, 0x8a, 0x7f, 0x17, 0xbf, 0xae, 0x5c, 0x43, 0xbf, 
 0xea, 0x2f, 0x65, 0xbe, 0x0b, 0xc5, 0x03, 0xbf, 0xf9, 0x19, 0xbc, 0xbe, 
 0x0e, 0x5e, 0x14, 0xbe, 0x78, 0x8e, 0xc7, 0xbe, 0x22, 0x75, 0x86, 0xbd, 
 0x8b, 0xc1, 0x03, 0xbf, 0x30, 0x77, 0xd4, 0x3d, 0xd4, 0x18, 0x9f, 0x3e, 
 0xbb, 0x09, 0xe1, 0x3d, 0x2c, 0x82, 0xa6, 0xbd, 0x88, 0x1f, 0x47, 0xbe, 
 0x07, 0x92, 0xdc, 0x3d, 0xfe, 0xf2, 0x1d, 0x3f, 0x65, 0xa8, 0x04, 0x3f, 
 0x59, 0x7e, 0xee, 0x3e, 0x0b, 0x19, 0xaf, 0x3e, 0x88, 0x57, 0xa3, 0x3e, 
 0xd9, 0x35, 0x9d, 0x3e, 0x52, 0xe1, 0x00, 0x3d, 0x9e, 0xec, 0x60, 0x3e, 
 0xfe, 0x12, 0x0b, 0x3f, 0x87, 0x65, 0x92, 0x3e, 0x1f, 0x76, 0x85, 0x3e, 
 0x53, 0x59, 0xe4, 0x3e, 0xfe, 0xc5, 0xca, 0xbe, 0xd5, 0xd3, 0xbf, 0xbd, 
 0xf2, 0xd5, 0x53, 0xbe, 0xe5, 0x28, 0xc4, 0xbd, 0xe7, 0x7d, 0xd1, 0x3e, 
 0x6c, 0x2b, 0xe1, 0x3c, 0xfa, 0x9d, 0x18, 0xbf, 0xf3, 0xef, 0xcb, 0xbd, 
 0x66, 0xcc, 0x69, 0x3e, 0xac, 0xd7, 0x24, 0xbd, 0x8b, 0xd5, 0x21, 0x3f, 
 0xa0, 0x0a, 0x24, 0xbe, 0x43, 0x04, 0x29, 0xbe, 0x07, 0xfd, 0xc1, 0xbd, 
 0x11, 0xdc, 0xa8, 0xbe, 0x10, 0x61, 0x8f, 0xbe, 0xf2, 0x27, 0x98, 0xbe, 
 0xa8, 0xd6, 0x8a, 0xbe, 0x4f, 0x28, 0x1f, 0xbd, 0x1d, 0xbd, 0xa9, 0xbd, 
 0x27, 0xd3, 0xda, 0x3e, 0x97, 0x8e, 0xfc, 0x3e, 0x09, 0x2a, 0x9c, 0xbf, 
 0x36, 0xc7, 0x99, 0x3e, 0xc7, 0x83, 0x51, 0xbe, 0xd7, 0x4f, 0x80, 0xbe, 
 0xfa, 0xcb, 0x95, 0x3f, 0x6a, 0x58, 0x79, 0x3f, 0x87, 0xad, 0x9e, 0x3f, 
 0x16, 0x97, 0xe7, 0x3e, 0xaa, 0xdd, 0x62, 0x3f, 0xbb, 0x0b, 0x4b, 0x3f, 
 0xb4, 0x01, 0x34, 0x3f, 0x3e, 0xe8, 0x36, 0x3f, 0x0a, 0xd0, 0x4b, 0x3e, 
 0x6f, 0xc6, 0x99, 0xbd, 0x87, 0x01, 0xa3, 0xbf, 0x84, 0xb1, 0xd8, 0x3e, 
 0x47, 0x4b, 0x99, 0x3f, 0xf3, 0xc7, 0x76, 0xbe, 0xb4, 0xc0, 0x9b, 0x3e, 
 0xe9, 0xfc, 0x9f, 0xbe, 0x9f, 0xc0, 0xe3, 0x3c, 0xe9, 0xef, 0x7b, 0xbe, 
 0x5e, 0x04, 0x90, 0xbe, 0x15, 0x03, 0x37, 0xbe, 0x4b, 0xe5, 0x05, 0xbf, 
 0x51, 0x8b, 0x6a, 0xbf, 0xa6, 0xd0, 0x76, 0xbf, 0x40, 0xd1, 0x8a, 0x3e, 
 0x6f, 0xcc, 0x90, 0x3e, 0xe8, 0xcf, 0x22, 0xbe, 0x7e, 0x75, 0xfc, 0xbe, 
 0x19, 0xb5, 0xa9, 0xbe, 0x6b, 0x02, 0xd1, 0xbd, 0x05, 0x82, 0xae, 0x3c, 
 0xc7, 0x63, 0x89, 0xbe, 0x48, 0x62, 0x0e, 0xbf, 0x86, 0xa7, 0xf0, 0xbe, 
 0x5c, 0xcc, 0x1d, 0xbf, 0x3d, 0xae, 0xe0, 0xbe, 0xbd, 0x0d, 0x76, 0xbb, 
 0x31, 0xcd, 0x9d, 0xbe, 0x37, 0x86, 0x34, 0x3e, 0xb3, 0x13, 0x02, 0xbe, 
 0x83, 0xe5, 0xef, 0xbc, 0x8e, 0x91, 0xb1, 0xbe, 0x03, 0x34, 0xd9, 0x3d, 
 0x8f, 0xc6, 0xc5, 0xbe, 0x4e, 0xfc, 0x2c, 0xbf, 0xc0, 0x96, 0xca, 0x3c, 
 0x31, 0x45, 0xef, 0xbd, 0x0f, 0x0b, 0x5c, 0x3e, 0x95, 0xce, 0x82, 0x3e, 
 0xb7, 0xa3, 0x9e, 0x3e, 0xb2, 0xe2, 0x7a, 0xbf, 0x2f, 0x4c, 0xa5, 0x3d, 
 0xbb, 0xb4, 0x8b, 0x3f, 0xdb, 0xd4, 0x31, 0x3e, 0x91, 0xa2, 0xb7, 0xbe, 
 0x11, 0x05, 0xfc, 0x3d, 0x6f, 0xb4, 0xb7, 0x3c, 0x83, 0xdb, 0xbc, 0xbe, 
 0x96, 0xe1, 0xb9, 0x3d, 0xc6, 0x06, 0xd7, 0xbe, 0xed, 0xab, 0xb0, 0xbe, 
 0x11, 0xec, 0x90, 0xbd, 0x56, 0x50, 0xc9, 0xbd, 0x3d, 0xd0, 0x06, 0x3f, 
 0x1f, 0x3e, 0xc3, 0xbe, 0x1c, 0x6e, 0x42, 0xbe, 0x7e, 0x33, 0x10, 0xbc, 
 0xf8, 0x59, 0x7a, 0xbe, 0x87, 0xc5, 0x51, 0xbe, 0x5d, 0x0e, 0x66, 0xbc, 
 0x85, 0xa6, 0xc4, 0xbb, 0x00, 0x7e, 0x5c, 0x3e, 0x63, 0xb3, 0x2c, 0x3e, 
 0x6e, 0xff, 0x4d, 0x3e, 0x4b, 0xfd, 0x56, 0x3e, 0x72, 0xfc, 0x06, 0x3f, 
 0xba, 0x8f, 0xcf, 0x3e, 0x5f, 0xed, 0x5e, 0xbe, 0xa0, 0x0a, 0x83, 0xbf, 
 0x8a, 0x6d, 0xe4, 0x3e, 0xa7, 0xbf, 0xa4, 0xbd, 0x59, 0x2e, 0xd0, 0x3e, 
 0xf6, 0xd9, 0xc8, 0x3e, 0x7c, 0xe9, 0x27, 0x3f, 0x43, 0xae, 0x09, 0x3f, 
 0xb4, 0x00, 0xcc, 0x3e, 0x52, 0xbb, 0x20, 0x3f, 0xb8, 0xf6, 0x63, 0x3e, 
 0x84, 0x98, 0xe5, 0x3d, 0xda, 0xfe, 0xff, 0xff, 0x04, 0x00, 0x00, 0x00, 
 0x40, 0x00, 0x00, 0x00, 0xad, 0x00, 0x32, 0x3f, 0x9d, 0xf4, 0x22, 0x3f, 
 0x78, 0x08, 0xa0, 0x3d, 0x7a, 0x56, 0xaa, 0x3f, 0x1d, 0x16, 0xe3, 0x3e, 
 0xdc, 0x79, 0x52, 0x3e, 0x4b, 0x2f, 0xe7, 0xbe, 0xd5, 0x09, 0x07, 0x3f, 
 0x5d, 0x53, 0x17, 0xbe, 0x18, 0x13, 0xac, 0xbe, 0xce, 0x0e, 0x6e, 0x3f, 
 0xb9, 0xc6, 0x72, 0xbd, 0xd8, 0x34, 0x11, 0x3f, 0xeb, 0x75, 0x3b, 0x3f, 
 0x09, 0x09, 0xa1, 0xbe, 0x06, 0x69, 0x1b, 0x3f, 0x26, 0xff, 0xff, 0xff, 
 0x04, 0x00, 0x00, 0x00, 0x0c, 0x00, 0x00, 0x00, 0x4f, 0xf3, 0xd2, 0xbd, 
 0xf9, 0x9e, 0xfb, 0x3e, 0x2f, 0x11, 0xf1, 0xbe, 0x3e, 0xff, 0xff, 0xff, 
 0x04, 0x00, 0x00, 0x00, 0x20, 0x00, 0x00, 0x00, 0x5e, 0xa8, 0x0b, 0x3f, 
 0x01, 0xc9, 0xa9, 0x3e, 0xbc, 0xaa, 0xc1, 0xbe, 0x90, 0xa2, 0xba, 0x3d, 
 0x0d, 0x69, 0x19, 0x3f, 0x17, 0x96, 0xcd, 0xbe, 0xbf, 0xf1, 0x83, 0x3e, 
 0x2f, 0xf7, 0xc9, 0xbe, 0x5c, 0xfa, 0xff, 0xff, 0x60, 0xfa, 0xff, 0xff, 
 0x0f, 0x00, 0x00, 0x00, 0x4d, 0x4c, 0x49, 0x52, 0x20, 0x43, 0x6f, 0x6e, 
 0x76, 0x65, 0x72, 0x74, 0x65, 0x64, 0x2e, 0x00, 0x01, 0x00, 0x00, 0x00, 
 0x14, 0x00, 0x00, 0x00, 0x00, 0x00, 0x0e, 0x00, 0x18, 0x00, 0x14, 0x00, 
 0x10, 0x00, 0x0c, 0x00, 0x08, 0x00, 0x04, 0x00, 0x0e, 0x00, 0x00, 0x00, 
 0x14, 0x00, 0x00, 0x00, 0x1c, 0x00, 0x00, 0x00, 0x24, 0x01, 0x00, 0x00, 
 0x28, 0x01, 0x00, 0x00, 0x2c, 0x01, 0x00, 0x00, 0x04, 0x00, 0x00, 0x00, 
 0x6d, 0x61, 0x69, 0x6e, 0x00, 0x00, 0x00, 0x00, 0x04, 0x00, 0x00, 0x00, 
 0xcc, 0x00, 0x00, 0x00, 0x84, 0x00, 0x00, 0x00, 0x50, 0x00, 0x00, 0x00, 
 0x14, 0x00, 0x00, 0x00, 0x00, 0x00, 0x0e, 0x00, 0x1a, 0x00, 0x14, 0x00, 
 0x10, 0x00, 0x0c, 0x00, 0x0b, 0x00, 0x04, 0x00, 0x0e, 0x00, 0x00, 0x00, 
 0x1c, 0x00, 0x00, 0x00, 0x00, 0x00, 0x00, 0x09, 0x1c, 0x00, 0x00, 0x00, 
 0x20, 0x00, 0x00, 0x00, 0x01, 0x00, 0x00, 0x00, 0x00, 0x00, 0x06, 0x00, 
 0x08, 0x00, 0x04, 0x00, 0x06, 0x00, 0x00, 0x00, 0x00, 0x00, 0x80, 0x3f, 
 0x01, 0x00, 0x00, 0x00, 0x0a, 0x00, 0x00, 0x00, 0x01, 0x00, 0x00, 0x00, 
 0x09, 0x00, 0x00, 0x00, 0x9a, 0xff, 0xff, 0xff, 0x10, 0x00, 0x00, 0x00, 
 0x00, 0x00, 0x00, 0x08, 0x0c, 0x00, 0x00, 0x00, 0x10, 0x00, 0x00, 0x00, 
 0x24, 0xfb, 0xff, 0xff, 0x01, 0x00, 0x00, 0x00, 0x09, 0x00, 0x00, 0x00, 
 0x03, 0x00, 0x00, 0x00, 0x08, 0x00, 0x00, 0x00, 0x06, 0x00, 0x00, 0x00, 
 0x02, 0x00, 0x00, 0x00, 0xca, 0xff, 0xff, 0xff, 0x10, 0x00, 0x00, 0x00, 
 0x00, 0x00, 0x00, 0x08, 0x10, 0x00, 0x00, 0x00, 0x14, 0x00, 0x00, 0x00, 
 0xba, 0xff, 0xff, 0xff, 0x00, 0x00, 0x00, 0x01, 0x01, 0x00, 0x00, 0x00, 
 0x08, 0x00, 0x00, 0x00, 0x03, 0x00, 0x00, 0x00, 0x07, 0x00, 0x00, 0x00, 
 0x05, 0x00, 0x00, 0x00, 0x01, 0x00, 0x00, 0x00, 0x00, 0x00, 0x0e, 0x00, 
 0x16, 0x00, 0x00, 0x00, 0x10, 0x00, 0x0c, 0x00, 0x0b, 0x00, 0x04, 0x00, 
 0x0e, 0x00, 0x00, 0x00, 0x18, 0x00, 0x00, 0x00, 0x00, 0x00, 0x00, 0x08, 
 0x18, 0x00, 0x00, 0x00, 0x1c, 0x00, 0x00, 0x00, 0x00, 0x00, 0x06, 0x00, 
 0x08, 0x00, 0x07, 0x00, 0x06, 0x00, 0x00, 0x00, 0x00, 0x00, 0x00, 0x01, 
 0x01, 0x00, 0x00, 0x00, 0x07, 0x00, 0x00, 0x00, 0x03, 0x00, 0x00, 0x00, 
 0x00, 0x00, 0x00, 0x00, 0x04, 0x00, 0x00, 0x00, 0x03, 0x00, 0x00, 0x00, 
 0x01, 0x00, 0x00, 0x00, 0x0a, 0x00, 0x00, 0x00, 0x01, 0x00, 0x00, 0x00, 
 0x00, 0x00, 0x00, 0x00, 0x0b, 0x00, 0x00, 0x00, 0x04, 0x04, 0x00, 0x00, 
 0x94, 0x03, 0x00, 0x00, 0x24, 0x03, 0x00, 0x00, 0xd0, 0x02, 0x00, 0x00, 
 0x88, 0x02, 0x00, 0x00, 0x3c, 0x02, 0x00, 0x00, 0xf0, 0x01, 0x00, 0x00, 
 0x68, 0x01, 0x00, 0x00, 0xd8, 0x00, 0x00, 0x00, 0x60, 0x00, 0x00, 0x00, 
 0x04, 0x00, 0x00, 0x00, 0x3e, 0xfc, 0xff, 0xff, 0x00, 0x00, 0x00, 0x01, 
 0x14, 0x00, 0x00, 0x00, 0x1c, 0x00, 0x00, 0x00, 0x1c, 0x00, 0x00, 0x00, 
 0x0b, 0x00, 0x00, 0x00, 0x34, 0x00, 0x00, 0x00, 0x02, 0x00, 0x00, 0x00, 
 0xff, 0xff, 0xff, 0xff, 0x03, 0x00, 0x00, 0x00, 0x28, 0xfc, 0xff, 0xff, 
 0x19, 0x00, 0x00, 0x00, 0x53, 0x74, 0x61, 0x74, 0x65, 0x66, 0x75, 0x6c, 
 0x50, 0x61, 0x72, 0x74, 0x69, 0x74, 0x69, 0x6f, 0x6e, 0x65, 0x64, 0x43, 
 0x61, 0x6c, 0x6c, 0x3a, 0x30, 0x00, 0x00, 0x00, 0x02, 0x00, 0x00, 0x00, 
 0x01, 0x00, 0x00, 0x00, 0x03, 0x00, 0x00, 0x00, 0x96, 0xfc, 0xff, 0xff, 
 0x00, 0x00, 0x00, 0x01, 0x14, 0x00, 0x00, 0x00, 0x1c, 0x00, 0x00, 0x00, 
 0x1c, 0x00, 0x00, 0x00, 0x0a, 0x00, 0x00, 0x00, 0x50, 0x00, 0x00, 0x00, 
 0x02, 0x00, 0x00, 0x00, 0xff, 0xff, 0xff, 0xff, 0x03, 0x00, 0x00, 0x00, 
 0x80, 0xfc, 0xff, 0xff, 0x34, 0x00, 0x00, 0x00, 0x73, 0x65, 0x71, 0x75, 
 0x65, 0x6e, 0x74, 0x69, 0x61, 0x6c, 0x2f, 0x64, 0x65, 0x6e, 0x73, 0x65, 
 0x5f, 0x32, 0x2f, 0x4d, 0x61, 0x74, 0x4d, 0x75, 0x6c, 0x3b, 0x73, 0x65, 
 0x71, 0x75, 0x65, 0x6e, 0x74, 0x69, 0x61, 0x6c, 0x2f, 0x64, 0x65, 0x6e, 
 0x73, 0x65, 0x5f, 0x32, 0x2f, 0x42, 0x69, 0x61, 0x73, 0x41, 0x64, 0x64, 
 0x00, 0x00, 0x00, 0x00, 0x02, 0x00, 0x00, 0x00, 0x01, 0x00, 0x00, 0x00, 
 0x03, 0x00, 0x00, 0x00, 0x0a, 0xfd, 0xff, 0xff, 0x00, 0x00, 0x00, 0x01, 
 0x14, 0x00, 0x00, 0x00, 0x1c, 0x00, 0x00, 0x00, 0x1c, 0x00, 0x00, 0x00, 
 0x09, 0x00, 0x00, 0x00, 0x68, 0x00, 0x00, 0x00, 0x02, 0x00, 0x00, 0x00, 
 0xff, 0xff, 0xff, 0xff, 0x08, 0x00, 0x00, 0x00, 0xf4, 0xfc, 0xff, 0xff, 
 0x4c, 0x00, 0x00, 0x00, 0x73, 0x65, 0x71, 0x75, 0x65, 0x6e, 0x74, 0x69, 
 0x61, 0x6c, 0x2f, 0x64, 0x65, 0x6e, 0x73, 0x65, 0x5f, 0x31, 0x2f, 0x4d, 
 0x61, 0x74, 0x4d, 0x75, 0x6c, 0x3b, 0x73, 0x65, 0x71, 0x75, 0x65, 0x6e, 
 0x74, 0x69, 0x61, 0x6c, 0x2f, 0x64, 0x65, 0x6e, 0x73, 0x65, 0x5f, 0x31, 
 0x2f, 0x52, 0x65, 0x6c, 0x75, 0x3b, 0x73, 0x65, 0x71, 0x75, 0x65, 0x6e, 
 0x74, 0x69, 0x61, 0x6c, 0x2f, 0x64, 0x65, 0x6e, 0x73, 0x65, 0x5f, 0x31, 
 0x2f, 0x42, 0x69, 0x61, 0x73, 0x41, 0x64, 0x64, 0x00, 0x00, 0x00, 0x00, 
 0x02, 0x00, 0x00, 0x00, 0x01, 0x00, 0x00, 0x00, 0x08, 0x00, 0x00, 0x00, 
 0x96, 0xfd, 0xff, 0xff, 0x00, 0x00, 0x00, 0x01, 0x14, 0x00, 0x00, 0x00, 
 0x1c, 0x00, 0x00, 0x00, 0x1c, 0x00, 0x00, 0x00, 0x08, 0x00, 0x00, 0x00, 
 0x60, 0x00, 0x00, 0x00, 0x02, 0x00, 0x00, 0x00, 0xff, 0xff, 0xff, 0xff, 
 0x10, 0x00, 0x00, 0x00, 0x80, 0xfd, 0xff, 0xff, 0x46, 0x00, 0x00, 0x00, 
 0x73, 0x65, 0x71, 0x75, 0x65, 0x6e, 0x74, 0x69, 0x61, 0x6c, 0x2f, 0x64, 
 0x65, 0x6e, 0x73, 0x65, 0x2f, 0x4d, 0x61, 0x74, 0x4d, 0x75, 0x6c, 0x3b, 
 0x73, 0x65, 0x71, 0x75, 0x65, 0x6e, 0x74, 0x69, 0x61, 0x6c, 0x2f, 0x64, 
 0x65, 0x6e, 0x73, 0x65, 0x2f, 0x52, 0x65, 0x6c, 0x75, 0x3b, 0x73, 0x65, 
 0x71, 0x75, 0x65, 0x6e, 0x74, 0x69, 0x61, 0x6c, 0x2f, 0x64, 0x65, 0x6e, 
 0x73, 0x65, 0x2f, 0x42, 0x69, 0x61, 0x73, 0x41, 0x64, 0x64, 0x00, 0x00, 
 0x02, 0x00, 0x00, 0x00, 0x01, 0x00, 0x00, 0x00, 0x10, 0x00, 0x00, 0x00, 
 0x86, 0xfe, 0xff, 0xff, 0x00, 0x00, 0x00, 0x01, 0x10, 0x00, 0x00, 0x00, 
 0x10, 0x00, 0x00, 0x00, 0x07, 0x00, 0x00, 0x00, 0x28, 0x00, 0x00, 0x00, 
 0xf4, 0xfd, 0xff, 0xff, 0x19, 0x00, 0x00, 0x00, 0x73, 0x65, 0x71, 0x75, 
 0x65, 0x6e, 0x74, 0x69, 0x61, 0x6c, 0x2f, 0x64, 0x65, 0x6e, 0x73, 0x65, 
 0x5f, 0x32, 0x2f, 0x4d, 0x61, 0x74, 0x4d, 0x75, 0x6c, 0x00, 0x00, 0x00, 
 0x02, 0x00, 0x00, 0x00, 0x03, 0x00, 0x00, 0x00, 0x08, 0x00, 0x00, 0x00, 
 0xce, 0xfe, 0xff, 0xff, 0x00, 0x00, 0x00, 0x01, 0x10, 0x00, 0x00, 0x00, 
 0x10, 0x00, 0x00, 0x00, 0x06, 0x00, 0x00, 0x00, 0x28, 0x00, 0x00, 0x00, 
 0x3c, 0xfe, 0xff, 0xff, 0x19, 0x00, 0x00, 0x00, 0x73, 0x65, 0x71, 0x75, 
 0x65, 0x6e, 0x74, 0x69, 0x61, 0x6c, 0x2f, 0x64, 0x65, 0x6e, 0x73, 0x65, 
 0x5f, 0x31, 0x2f, 0x4d, 0x61, 0x74, 0x4d, 0x75, 0x6c, 0x00, 0x00, 0x00, 
 0x02, 0x00, 0x00, 0x00, 0x08, 0x00, 0x00, 0x00, 0x10, 0x00, 0x00, 0x00, 
 0x16, 0xff, 0xff, 0xff, 0x00, 0x00, 0x00, 0x01, 0x10, 0x00, 0x00, 0x00, 
 0x10, 0x00, 0x00, 0x00, 0x05, 0x00, 0x00, 0x00, 0x24, 0x00, 0x00, 0x00, 
 0x84, 0xfe, 0xff, 0xff, 0x17, 0x00, 0x00, 0x00, 0x73, 0x65, 0x71, 0x75, 
 0x65, 0x6e, 0x74, 0x69, 0x61, 0x6c, 0x2f, 0x64, 0x65, 0x6e, 0x73, 0x65, 
 0x2f, 0x4d, 0x61, 0x74, 0x4d, 0x75, 0x6c, 0x00, 0x02, 0x00, 0x00, 0x00, 
 0x10, 0x00, 0x00, 0x00, 0x0d, 0x00, 0x00, 0x00, 0x5a, 0xff, 0xff, 0xff, 
 0x00, 0x00, 0x00, 0x01, 0x10, 0x00, 0x00, 0x00, 0x10, 0x00, 0x00, 0x00, 
 0x04, 0x00, 0x00, 0x00, 0x34, 0x00, 0x00, 0x00, 0xc8, 0xfe, 0xff, 0xff, 
 0x27, 0x00, 0x00, 0x00, 0x73, 0x65, 0x71, 0x75, 0x65, 0x6e, 0x74, 0x69, 
 0x61, 0x6c, 0x2f, 0x64, 0x65, 0x6e, 0x73, 0x65, 0x2f, 0x42, 0x69, 0x61, 
 0x73, 0x41, 0x64, 0x64, 0x2f, 0x52, 0x65, 0x61, 0x64, 0x56, 0x61, 0x72, 
 0x69, 0x61, 0x62, 0x6c, 0x65, 0x4f, 0x70, 0x00, 0x01, 0x00, 0x00, 0x00, 
 0x10, 0x00, 0x00, 0x00, 0xaa, 0xff, 0xff, 0xff, 0x00, 0x00, 0x00, 0x01, 
 0x10, 0x00, 0x00, 0x00, 0x10, 0x00, 0x00, 0x00, 0x03, 0x00, 0x00, 0x00, 
 0x38, 0x00, 0x00, 0x00, 0x18, 0xff, 0xff, 0xff, 0x29, 0x00, 0x00, 0x00, 
 0x73, 0x65, 0x71, 0x75, 0x65, 0x6e, 0x74, 0x69, 0x61, 0x6c, 0x2f, 0x64, 
 0x65, 0x6e, 0x73, 0x65, 0x5f, 0x32, 0x2f, 0x42, 0x69, 0x61, 0x73, 0x41, 
 0x64, 0x64, 0x2f, 0x52, 0x65, 0x61, 0x64, 0x56, 0x61, 0x72, 0x69, 0x61, 
 0x62, 0x6c, 0x65, 0x4f, 0x70, 0x00, 0x00, 0x00, 0x01, 0x00, 0x00, 0x00, 
 0x03, 0x00, 0x00, 0x00, 0x00, 0x00, 0x16, 0x00, 0x18, 0x00, 0x14, 0x00, 
 0x00, 0x00, 0x10, 0x00, 0x0c, 0x00, 0x08, 0x00, 0x00, 0x00, 0x00, 0x00, 
 0x00, 0x00, 0x07, 0x00, 0x16, 0x00, 0x00, 0x00, 0x00, 0x00, 0x00, 0x01, 
 0x10, 0x00, 0x00, 0x00, 0x10, 0x00, 0x00, 0x00, 0x02, 0x00, 0x00, 0x00, 
 0x38, 0x00, 0x00, 0x00, 0x84, 0xff, 0xff, 0xff, 0x29, 0x00, 0x00, 0x00, 
 0x73, 0x65, 0x71, 0x75, 0x65, 0x6e, 0x74, 0x69, 0x61, 0x6c, 0x2f, 0x64, 
 0x65, 0x6e, 0x73, 0x65, 0x5f, 0x31, 0x2f, 0x42, 0x69, 0x61, 0x73, 0x41, 
 0x64, 0x64, 0x2f, 0x52, 0x65, 0x61, 0x64, 0x56, 0x61, 0x72, 0x69, 0x61, 
 0x62, 0x6c, 0x65, 0x4f, 0x70, 0x00, 0x00, 0x00, 0x01, 0x00, 0x00, 0x00, 
 0x08, 0x00, 0x00, 0x00, 0x00, 0x00, 0x16, 0x00, 0x1c, 0x00, 0x18, 0x00, 
 0x00, 0x00, 0x14, 0x00, 0x10, 0x00, 0x0c, 0x00, 0x00, 0x00, 0x00, 0x00, 
 0x08, 0x00, 0x07, 0x00, 0x16, 0x00, 0x00, 0x00, 0x00, 0x00, 0x00, 0x01, 
 0x14, 0x00, 0x00, 0x00, 0x20, 0x00, 0x00, 0x00, 0x20, 0x00, 0x00, 0x00, 
 0x01, 0x00, 0x00, 0x00, 0x3c, 0x00, 0x00, 0x00, 0x02, 0x00, 0x00, 0x00, 
 0xff, 0xff, 0xff, 0xff, 0x0d, 0x00, 0x00, 0x00, 0x04, 0x00, 0x04, 0x00, 
 0x04, 0x00, 0x00, 0x00, 0x1d, 0x00, 0x00, 0x00, 0x73, 0x65, 0x72, 0x76, 
 0x69, 0x6e, 0x67, 0x5f, 0x64, 0x65, 0x66, 0x61, 0x75, 0x6c, 0x74, 0x5f, 
 0x64, 0x65, 0x6e, 0x73, 0x65, 0x5f, 0x69, 0x6e, 0x70, 0x75, 0x74, 0x3a, 
 0x30, 0x00, 0x00, 0x00, 0x02, 0x00, 0x00, 0x00, 0x01, 0x00, 0x00, 0x00, 
 0x0d, 0x00, 0x00, 0x00, 0x02, 0x00, 0x00, 0x00, 0x20, 0x00, 0x00, 0x00, 
 0x04, 0x00, 0x00, 0x00, 0xf4, 0xff, 0xff, 0xff, 0x19, 0x00, 0x00, 0x00, 
 0x00, 0x00, 0x00, 0x19, 0x0c, 0x00, 0x0c, 0x00, 0x0b, 0x00, 0x00, 0x00, 
 0x00, 0x00, 0x04, 0x00, 0x0c, 0x00, 0x00, 0x00, 0x09, 0x00, 0x00, 0x00, 
 0x00, 0x00, 0x00, 0x09, 
};

const unsigned int gmodel_tflite_len = sizeof(gmodel_tflite);
