#ifndef MODEL_DATA_H
#define MODEL_DATA_H

#include <stddef.h>

const unsigned char model_data[] = {

 0x1c, 0x00, 0x00, 0x00, 0x54, 0x46, 0x4c, 0x33, 0x14, 0x00, 0x20, 0x00, 
 0x1c, 0x00, 0x18, 0x00, 0x14, 0x00, 0x10, 0x00, 0x0c, 0x00, 0x00, 0x00, 
 0x08, 0x00, 0x04, 0x00, 0x14, 0x00, 0x00, 0x00, 0x1c, 0x00, 0x00, 0x00, 
 0x90, 0x00, 0x00, 0x00, 0xe8, 0x00, 0x00, 0x00, 0x48, 0x08, 0x00, 0x00, 
 0x58, 0x08, 0x00, 0x00, 0x14, 0x0e, 0x00, 0x00, 0x03, 0x00, 0x00, 0x00, 
 0x01, 0x00, 0x00, 0x00, 0x10, 0x00, 0x00, 0x00, 0x00, 0x00, 0x0a, 0x00, 
 0x10, 0x00, 0x0c, 0x00, 0x08, 0x00, 0x04, 0x00, 0x0a, 0x00, 0x00, 0x00, 
 0x0c, 0x00, 0x00, 0x00, 0x1c, 0x00, 0x00, 0x00, 0x38, 0x00, 0x00, 0x00, 
 0x0f, 0x00, 0x00, 0x00, 0x73, 0x65, 0x72, 0x76, 0x69, 0x6e, 0x67, 0x5f, 
 0x64, 0x65, 0x66, 0x61, 0x75, 0x6c, 0x74, 0x00, 0x01, 0x00, 0x00, 0x00, 
 0x04, 0x00, 0x00, 0x00, 0x98, 0xff, 0xff, 0xff, 0x0a, 0x00, 0x00, 0x00, 
 0x04, 0x00, 0x00, 0x00, 0x07, 0x00, 0x00, 0x00, 0x64, 0x65, 0x6e, 0x73, 
 0x65, 0x5f, 0x32, 0x00, 0x01, 0x00, 0x00, 0x00, 0x04, 0x00, 0x00, 0x00, 
 0x9a, 0xf7, 0xff, 0xff, 0x04, 0x00, 0x00, 0x00, 0x0b, 0x00, 0x00, 0x00, 
 0x64, 0x65, 0x6e, 0x73, 0x65, 0x5f, 0x69, 0x6e, 0x70, 0x75, 0x74, 0x00, 
 0x02, 0x00, 0x00, 0x00, 0x34, 0x00, 0x00, 0x00, 0x04, 0x00, 0x00, 0x00, 
 0xdc, 0xff, 0xff, 0xff, 0x0d, 0x00, 0x00, 0x00, 0x04, 0x00, 0x00, 0x00, 
 0x13, 0x00, 0x00, 0x00, 0x43, 0x4f, 0x4e, 0x56, 0x45, 0x52, 0x53, 0x49, 
 0x4f, 0x4e, 0x5f, 0x4d, 0x45, 0x54, 0x41, 0x44, 0x41, 0x54, 0x41, 0x00, 
 0x08, 0x00, 0x0c, 0x00, 0x08, 0x00, 0x04, 0x00, 0x08, 0x00, 0x00, 0x00, 
 0x0c, 0x00, 0x00, 0x00, 0x04, 0x00, 0x00, 0x00, 0x13, 0x00, 0x00, 0x00, 
 0x6d, 0x69, 0x6e, 0x5f, 0x72, 0x75, 0x6e, 0x74, 0x69, 0x6d, 0x65, 0x5f, 
 0x76, 0x65, 0x72, 0x73, 0x69, 0x6f, 0x6e, 0x00, 0x0e, 0x00, 0x00, 0x00, 
 0x5c, 0x07, 0x00, 0x00, 0x54, 0x07, 0x00, 0x00, 0x24, 0x07, 0x00, 0x00, 
 0x08, 0x07, 0x00, 0x00, 0xb8, 0x06, 0x00, 0x00, 0x28, 0x03, 0x00, 0x00, 
 0x18, 0x01, 0x00, 0x00, 0xa8, 0x00, 0x00, 0x00, 0xa0, 0x00, 0x00, 0x00, 
 0x98, 0x00, 0x00, 0x00, 0x90, 0x00, 0x00, 0x00, 0x88, 0x00, 0x00, 0x00, 
 0x68, 0x00, 0x00, 0x00, 0x04, 0x00, 0x00, 0x00, 0x4a, 0xf8, 0xff, 0xff, 
 0x04, 0x00, 0x00, 0x00, 0x54, 0x00, 0x00, 0x00, 0x0c, 0x00, 0x00, 0x00, 
 0x08, 0x00, 0x0e, 0x00, 0x08, 0x00, 0x04, 0x00, 0x08, 0x00, 0x00, 0x00, 
 0x10, 0x00, 0x00, 0x00, 0x24, 0x00, 0x00, 0x00, 0x00, 0x00, 0x06, 0x00, 
 0x08, 0x00, 0x04, 0x00, 0x06, 0x00, 0x00, 0x00, 0x04, 0x00, 0x00, 0x00, 
 0x00, 0x00, 0x00, 0x00, 0x00, 0x00, 0x0a, 0x00, 0x10, 0x00, 0x0c, 0x00, 
 0x08, 0x00, 0x04, 0x00, 0x0a, 0x00, 0x00, 0x00, 0x02, 0x00, 0x00, 0x00, 
 0x02, 0x00, 0x00, 0x00, 0x04, 0x00, 0x00, 0x00, 0x06, 0x00, 0x00, 0x00, 
 0x32, 0x2e, 0x31, 0x33, 0x2e, 0x30, 0x00, 0x00, 0xaa, 0xf8, 0xff, 0xff, 
 0x04, 0x00, 0x00, 0x00, 0x10, 0x00, 0x00, 0x00, 0x31, 0x2e, 0x35, 0x2e, 
 0x30, 0x00, 0x00, 0x00, 0x00, 0x00, 0x00, 0x00, 0x00, 0x00, 0x00, 0x00, 
 0xb8, 0xf3, 0xff, 0xff, 0xbc, 0xf3, 0xff, 0xff, 0xc0, 0xf3, 0xff, 0xff, 
 0xc4, 0xf3, 0xff, 0xff, 0xd6, 0xf8, 0xff, 0xff, 0x04, 0x00, 0x00, 0x00, 
 0x60, 0x00, 0x00, 0x00, 0x9d, 0x08, 0x70, 0x3e, 0x0b, 0x33, 0x26, 0x3e, 
 0xa3, 0x68, 0xac, 0xbe, 0xed, 0x8d, 0x73, 0x3e, 0x3f, 0x13, 0x55, 0xbf, 
 0xd2, 0x6b, 0xb4, 0xbf, 0xcb, 0xed, 0x0b, 0xbf, 0x7a, 0x69, 0x45, 0x3f, 
 0xc4, 0x25, 0x74, 0xbd, 0xf1, 0xa3, 0x08, 0xbf, 0xe2, 0x5d, 0x97, 0xbe, 
 0xd2, 0x4b, 0x7d, 0x3d, 0xe2, 0x04, 0x5b, 0x3f, 0x9b, 0x17, 0x89, 0xbe, 
 0x0b, 0x66, 0x9d, 0x3e, 0x46, 0x63, 0x7c, 0xbf, 0xe9, 0xd9, 0xa0, 0x3f, 
 0xa6, 0xa9, 0xdb, 0xbe, 0x5f, 0x8a, 0x85, 0xbf, 0xa9, 0x08, 0xdd, 0xbf, 
 0x43, 0x3f, 0x51, 0x3e, 0x96, 0x16, 0x3d, 0x3e, 0x4a, 0x96, 0x8f, 0x3d, 
 0xa8, 0xe8, 0x81, 0xbf, 0x42, 0xf9, 0xff, 0xff, 0x04, 0x00, 0x00, 0x00, 
 0x00, 0x02, 0x00, 0x00, 0x30, 0xae, 0xf9, 0xbe, 0xcd, 0x1e, 0x16, 0xbf, 
 0x15, 0x60, 0xa8, 0xbe, 0xae, 0x23, 0xaf, 0xbe, 0x52, 0xce, 0x78, 0x3d, 
 0x6c, 0x76, 0x3e, 0xbe, 0x55, 0x45, 0xb1, 0x3e, 0xd9, 0x14, 0xa8, 0xbe, 
 0x45, 0x32, 0x7e, 0xbd, 0xaa, 0x48, 0x0e, 0xbf, 0xa9, 0x1c, 0x1a, 0x3e, 
 0xa5, 0xe6, 0xe4, 0x3e, 0x75, 0x28, 0x51, 0x3f, 0x91, 0x52, 0x03, 0x3f, 
 0xd3, 0x04, 0x9c, 0x3e, 0xc2, 0x0b, 0x54, 0xbe, 0xaa, 0xcb, 0x64, 0xbe, 
 0x6f, 0xd5, 0x7a, 0x3d, 0x1b, 0xb3, 0x6d, 0x3e, 0x9d, 0xd8, 0xe3, 0x3e, 
 0x93, 0xf3, 0xd0, 0xbc, 0x5e, 0x5a, 0x2a, 0x3e, 0x9a, 0x05, 0x05, 0xbe, 
 0xb3, 0x85, 0x40, 0x3d, 0x60, 0xa5, 0x19, 0x3f, 0x3a, 0x51, 0xf5, 0x3c, 
 0x37, 0xba, 0xc6, 0xbe, 0x9c, 0xb8, 0x54, 0xbe, 0x93, 0xa3, 0x33, 0xbf, 
 0x4b, 0x81, 0xd1, 0xbe, 0x0e, 0x8c, 0x38, 0x3d, 0xbc, 0x33, 0x0a, 0x3f, 
 0x18, 0xfe, 0x3c, 0x3f, 0x31, 0xa8, 0x48, 0x3f, 0xb0, 0xc4, 0xa2, 0x3e, 
 0xdb, 0xb8, 0x18, 0x3f, 0x94, 0xf4, 0x89, 0x3b, 0xf4, 0x85, 0x6e, 0x3f, 
 0x9c, 0x49, 0x2d, 0x3e, 0x7a, 0xb9, 0x93, 0xbd, 0x13, 0x04, 0xb3, 0x3e, 
 0x1f, 0x75, 0x6c, 0x3f, 0xf3, 0x73, 0xad, 0x3d, 0x3b, 0xb3, 0xcd, 0xbc, 
 0x79, 0x4e, 0xd1, 0xbe, 0x10, 0xa2, 0x87, 0xbe, 0x6f, 0x33, 0x4a, 0x3d, 
 0x55, 0x30, 0x1b, 0x3f, 0x28, 0xec, 0x84, 0x3f, 0x6e, 0x7d, 0x3f, 0x3e, 
 0x58, 0x44, 0x3a, 0x3f, 0xf8, 0x91, 0xa9, 0x3e, 0x9b, 0xf8, 0xc0, 0x3d, 
 0xea, 0x64, 0x1e, 0x3f, 0xad, 0x91, 0x23, 0xbf, 0x69, 0x9b, 0x83, 0x3e, 
 0xdf, 0xf4, 0xff, 0x3e, 0x54, 0x06, 0x81, 0x3f, 0x1f, 0x26, 0xc4, 0xbe, 
 0xc8, 0x39, 0xd2, 0x3e, 0x0b, 0x56, 0xca, 0xbe, 0x8d, 0xc6, 0xa7, 0xbe, 
 0x7a, 0xd8, 0xa5, 0xbe, 0xef, 0xf0, 0x47, 0x3f, 0xdb, 0xde, 0xb9, 0xbe, 
 0x06, 0x88, 0xca, 0x3e, 0xc4, 0x9d, 0xa7, 0x3e, 0x34, 0x54, 0x5c, 0xbf, 
 0x44, 0x48, 0x28, 0x3f, 0xad, 0x1a, 0x15, 0x3e, 0xb5, 0x8f, 0x10, 0x3e, 
 0xe6, 0x8e, 0xd9, 0xbe, 0xca, 0xa1, 0x7c, 0x3e, 0xd4, 0xa7, 0xeb, 0x3d, 
 0x1b, 0xf0, 0x12, 0xbf, 0x73, 0xec, 0x10, 0xbf, 0x96, 0x4f, 0x45, 0x3e, 
 0xd8, 0x05, 0xdf, 0x3d, 0xee, 0x44, 0x97, 0x3e, 0x31, 0x5b, 0x74, 0x3e, 
 0x6f, 0xa2, 0x48, 0xbe, 0xee, 0xbf, 0x57, 0x3e, 0x50, 0xd7, 0xbc, 0xbe, 
 0xa4, 0x7a, 0x1c, 0x3e, 0xb2, 0x52, 0x16, 0x3f, 0x15, 0x51, 0x22, 0xbf, 
 0x69, 0xc9, 0xbe, 0x3e, 0x34, 0x10, 0xb4, 0xbe, 0xfe, 0x82, 0x8b, 0xbc, 
 0xbb, 0x3e, 0x7d, 0x3e, 0x74, 0x6c, 0x22, 0x3f, 0xfe, 0x89, 0xc7, 0x3e, 
 0xf3, 0x52, 0x85, 0x3f, 0x67, 0x5c, 0x21, 0x3f, 0x77, 0x44, 0x63, 0x3f, 
 0x3d, 0x7e, 0xee, 0xbe, 0x6e, 0x8b, 0x5d, 0xbd, 0xd1, 0x50, 0x88, 0xbe, 
 0x38, 0x26, 0x8d, 0xbe, 0x9e, 0xad, 0xcd, 0xbe, 0x60, 0x98, 0x03, 0xbe, 
 0x33, 0xe8, 0x1b, 0x3f, 0xf8, 0xab, 0x4f, 0x3e, 0xa3, 0xb2, 0xea, 0x3e, 
 0x4e, 0x11, 0x07, 0x3f, 0x26, 0xc8, 0xd2, 0xbe, 0xdf, 0xac, 0xf1, 0x3e, 
 0x8c, 0x74, 0x2a, 0xbe, 0xb4, 0x5a, 0xc2, 0xbe, 0xf2, 0xde, 0x1c, 0x3f, 
 0xef, 0x53, 0x2d, 0x3f, 0x31, 0x41, 0xdf, 0x3d, 0xf1, 0xb1, 0x82, 0x3e, 
 0x38, 0xb1, 0x12, 0x3f, 0x59, 0x95, 0x8a, 0xbe, 0xfc, 0xca, 0x1e, 0x3f, 
 0xc9, 0x2e, 0x0d, 0xbf, 0x03, 0xee, 0xd2, 0x3e, 0x77, 0xf3, 0x08, 0xbf, 
 0x02, 0x90, 0x53, 0xbd, 0xca, 0x07, 0xc0, 0x3e, 0x82, 0xc6, 0xad, 0x3e, 
 0x1d, 0xe9, 0x37, 0xbf, 0x49, 0x1e, 0x53, 0x3d, 0x4c, 0xa7, 0xf0, 0xbe, 
 0x50, 0x5e, 0x18, 0xbe, 0xd3, 0x1e, 0x17, 0xbf, 0xff, 0xa5, 0x13, 0x3f, 
 0x4e, 0xfb, 0xff, 0xff, 0x04, 0x00, 0x00, 0x00, 0x80, 0x03, 0x00, 0x00, 
 0xde, 0x88, 0x39, 0xbf, 0xe1, 0xcf, 0xb8, 0x3e, 0x9f, 0x54, 0x02, 0xbe, 
 0x47, 0x70, 0xca, 0xbe, 0xee, 0x27, 0x14, 0xbe, 0xa5, 0x17, 0xb7, 0x3d, 
 0x80, 0x9c, 0x9e, 0x3e, 0x7c, 0xd4, 0x93, 0xbe, 0xf9, 0xbd, 0x50, 0x3e, 
 0xab, 0x45, 0x73, 0xbd, 0x43, 0xfe, 0x6f, 0xbe, 0x04, 0xc9, 0x00, 0xbf, 
 0xca, 0x72, 0xfa, 0x3d, 0x14, 0x0e, 0x7b, 0xbf, 0x1f, 0x4e, 0x8c, 0xbe, 
 0xde, 0x8e, 0x9b, 0xbd, 0xc3, 0x58, 0x8e, 0x3e, 0x41, 0xe9, 0xa3, 0x3c, 
 0x08, 0x6f, 0xd2, 0x3e, 0x7d, 0x01, 0x7e, 0xbe, 0x3c, 0x89, 0x32, 0xbe, 
 0xf7, 0xb1, 0xf7, 0xbd, 0x75, 0xd1, 0x08, 0x3f, 0x5d, 0x6c, 0xca, 0xbd, 
 0xb5, 0xa9, 0xf2, 0x3b, 0xd3, 0x21, 0xc7, 0xbe, 0x12, 0x00, 0xf0, 0xbd, 
 0x19, 0x64, 0x44, 0xbf, 0x69, 0x5f, 0x56, 0x3e, 0xf3, 0xd2, 0xae, 0x3e, 
 0x6d, 0xb0, 0xff, 0x3e, 0x33, 0x9b, 0x2d, 0x3e, 0x13, 0xa2, 0x2c, 0xbe, 
 0xfd, 0x1b, 0x9b, 0x3e, 0x4b, 0x27, 0xb6, 0x3e, 0x99, 0xd7, 0x42, 0xbe, 
 0x0f, 0xbd, 0xc0, 0xbc, 0x52, 0x0c, 0xaa, 0x3e, 0x4b, 0x70, 0x95, 0x3e, 
 0xe5, 0xd9, 0x92, 0xbe, 0xfc, 0xab, 0x87, 0x3e, 0x0f, 0xd9, 0xcc, 0xbe, 
 0x22, 0x37, 0xbc, 0x3e, 0xec, 0xfd, 0x85, 0x3b, 0x8f, 0xcf, 0x52, 0x3e, 
 0x84, 0x88, 0xc7, 0xbe, 0x2a, 0xa0, 0x05, 0xbe, 0xe9, 0x93, 0xc2, 0xbe, 
 0x6f, 0x2b, 0xc1, 0x3e, 0xe6, 0xdd, 0x98, 0xbe, 0x99, 0x1e, 0xf3, 0xbe, 
 0xe5, 0xd3, 0xa2, 0xbc, 0x12, 0x13, 0x60, 0x3d, 0x21, 0x44, 0x97, 0xbe, 
 0x67, 0x4b, 0xab, 0xbe, 0x5e, 0xb4, 0x8e, 0xbf, 0xdd, 0xac, 0x08, 0x3e, 
 0x70, 0x97, 0x1b, 0xbe, 0x1f, 0x47, 0xbf, 0xbe, 0xae, 0xf6, 0xa6, 0x3d, 
 0xc0, 0xd2, 0x82, 0x3e, 0x2d, 0x75, 0x18, 0x3e, 0x45, 0x70, 0x31, 0xbf, 
 0xac, 0xde, 0x23, 0xbf, 0x32, 0xeb, 0x59, 0xbe, 0xb8, 0xa3, 0x48, 0x3e, 
 0x77, 0x0d, 0x0a, 0xbf, 0x09, 0xcf, 0x5a, 0xbd, 0x2a, 0x18, 0x24, 0x3e, 
 0xfc, 0xae, 0x1a, 0x3f, 0x52, 0xaa, 0xd4, 0x3d, 0x09, 0xb3, 0xcf, 0xbe, 
 0x16, 0x7c, 0x2f, 0xbd, 0xeb, 0xfd, 0x6a, 0xbe, 0x1c, 0xe8, 0xdf, 0xbe, 
 0x55, 0x06, 0x9c, 0x3e, 0x75, 0x86, 0xc3, 0xbe, 0x5f, 0xe6, 0xd5, 0xbd, 
 0x9f, 0x4e, 0x11, 0xbd, 0x66, 0xc1, 0x79, 0xbd, 0xde, 0x21, 0x56, 0xbe, 
 0xd6, 0xea, 0xa7, 0xbd, 0x1c, 0x0e, 0x5d, 0x3e, 0x93, 0xee, 0x81, 0xbf, 
 0x8c, 0x98, 0xd6, 0xbd, 0x05, 0x9f, 0x9a, 0xbe, 0x51, 0x36, 0xfd, 0xbc, 
 0xd0, 0x58, 0xa7, 0x3e, 0xe2, 0x5a, 0x2c, 0xbe, 0xa7, 0x4a, 0x8c, 0x3e, 
 0xec, 0x9e, 0x94, 0x3e, 0xf3, 0xad, 0x9c, 0x3e, 0x6b, 0xce, 0xb4, 0xbe, 
 0xc8, 0xa7, 0xa8, 0xbe, 0xde, 0xd4, 0x0c, 0x3f, 0xff, 0x57, 0x98, 0x3e, 
 0xd7, 0xe3, 0xf6, 0x3d, 0x0e, 0xeb, 0x58, 0x3f, 0x42, 0x44, 0x94, 0x3e, 
 0xe0, 0x70, 0x12, 0xbe, 0x36, 0x6a, 0x43, 0x3e, 0xbd, 0xd6, 0xca, 0xbe, 
 0x0c, 0x58, 0x3d, 0x3d, 0xb3, 0x28, 0x32, 0x3d, 0x37, 0xac, 0xbb, 0x3c, 
 0x9f, 0xe7, 0x77, 0x3e, 0xc6, 0x51, 0x3b, 0x3e, 0x33, 0x0e, 0xae, 0x3e, 
 0x49, 0xe3, 0x4e, 0x3d, 0x19, 0xf1, 0x85, 0xbd, 0xec, 0xcd, 0xc0, 0xbe, 
 0x49, 0xee, 0x24, 0xbf, 0x61, 0xd5, 0xa1, 0xbe, 0xf3, 0x4f, 0xe2, 0x3e, 
 0xa5, 0x3a, 0x1e, 0x3f, 0xc0, 0x7e, 0xe2, 0xbe, 0xa8, 0x97, 0x61, 0x3e, 
 0x63, 0xd6, 0x86, 0xbd, 0x39, 0x2d, 0x8b, 0xbe, 0xee, 0x09, 0x70, 0xbe, 
 0x76, 0x20, 0xfd, 0x3d, 0xc0, 0x53, 0x03, 0xbc, 0x55, 0xe3, 0xa9, 0xbe, 
 0x72, 0x42, 0x31, 0xbf, 0x96, 0x8a, 0x95, 0x3e, 0xa4, 0x3f, 0xdb, 0xbe, 
 0xa5, 0xd1, 0x80, 0xbe, 0xb9, 0xc1, 0xaf, 0xbe, 0x72, 0x14, 0x09, 0xbe, 
 0xd9, 0xc0, 0x92, 0x3e, 0x7d, 0xee, 0x7b, 0x3e, 0x01, 0x87, 0x89, 0xbd, 
 0x22, 0x19, 0xa3, 0xbe, 0x19, 0x64, 0x14, 0xbe, 0x0e, 0x8c, 0x03, 0x3e, 
 0x99, 0xc8, 0x9d, 0x3d, 0x52, 0x04, 0xb1, 0xbe, 0x49, 0x30, 0x1e, 0xbf, 
 0xf6, 0xbb, 0xc8, 0xbe, 0xf8, 0xda, 0x8e, 0xbf, 0xc6, 0x71, 0xb8, 0x3e, 
 0xdc, 0x47, 0xc1, 0x3d, 0xd4, 0xec, 0x88, 0xbe, 0x31, 0xd0, 0xc9, 0xbe, 
 0x51, 0x48, 0xf4, 0xbd, 0xe6, 0x1f, 0x94, 0xbe, 0x71, 0xe7, 0x24, 0x3d, 
 0xc9, 0x3d, 0xe7, 0x3e, 0x20, 0x9c, 0xe8, 0x3e, 0x90, 0x31, 0x73, 0x3e, 
 0x3c, 0xce, 0x72, 0x3d, 0xa0, 0x4a, 0xdc, 0x3d, 0x3c, 0xa8, 0xd9, 0x3e, 
 0x9f, 0x0d, 0xf3, 0x3e, 0x8f, 0xda, 0x10, 0x3f, 0x63, 0x55, 0xae, 0x3c, 
 0xc2, 0xa1, 0x01, 0x3e, 0x69, 0x5b, 0xd4, 0x3e, 0x4c, 0xe5, 0x91, 0x3d, 
 0x9e, 0x38, 0x1d, 0xbf, 0x92, 0x29, 0x14, 0x3e, 0xe2, 0xcc, 0x8c, 0x3e, 
 0x09, 0xc7, 0xd7, 0xbc, 0x36, 0x5c, 0x99, 0x3c, 0x26, 0xcf, 0xf0, 0x3e, 
 0xa1, 0x8c, 0xe2, 0x3e, 0xa0, 0x1c, 0x05, 0xbf, 0x14, 0x86, 0x84, 0xbb, 
 0x76, 0x2f, 0x87, 0x3e, 0x95, 0xff, 0xa2, 0xbe, 0x86, 0xa8, 0x91, 0x3e, 
 0x86, 0xa6, 0xdb, 0x3e, 0xe3, 0xb3, 0xdb, 0x3d, 0x87, 0x56, 0xfe, 0x3e, 
 0x90, 0x84, 0x33, 0xbe, 0x49, 0x1f, 0xd4, 0xbe, 0x5a, 0x3e, 0xb8, 0x3e, 
 0xd1, 0x1b, 0xb2, 0x3d, 0x20, 0x61, 0xcf, 0xbd, 0x62, 0xfc, 0xe1, 0x3e, 
 0x6c, 0xa9, 0x3a, 0xbe, 0x3c, 0x1a, 0x7e, 0x3f, 0xe4, 0xb5, 0xa7, 0xbe, 
 0xa4, 0x20, 0xcb, 0x3d, 0x18, 0xfb, 0x1b, 0xbe, 0x7f, 0x3e, 0x6e, 0xbe, 
 0xcf, 0xa5, 0x14, 0x3f, 0xda, 0x4d, 0x11, 0x3f, 0x21, 0x16, 0x2c, 0x3e, 
 0x5c, 0x05, 0xd3, 0x3e, 0x34, 0x57, 0xdd, 0x3e, 0x08, 0xd6, 0xc7, 0x3e, 
 0x85, 0xe4, 0xff, 0x3c, 0xa9, 0xa2, 0xaf, 0xbe, 0x99, 0x69, 0x08, 0x3f, 
 0x85, 0xab, 0x3d, 0x3f, 0x53, 0x56, 0x8d, 0x3e, 0xc0, 0x5f, 0x43, 0x3d, 
 0xec, 0x47, 0x3c, 0xbe, 0x36, 0xae, 0x51, 0x3e, 0x4f, 0x2d, 0x89, 0x3b, 
 0x0b, 0xe3, 0x2f, 0xbe, 0x6d, 0x10, 0x8b, 0x3e, 0x52, 0xb6, 0xae, 0x3e, 
 0xec, 0x75, 0xd7, 0xbc, 0xcc, 0x46, 0x61, 0x3e, 0x84, 0xe1, 0x50, 0x3f, 
 0xe0, 0x4d, 0x77, 0xbd, 0x69, 0x91, 0xac, 0xbe, 0xb2, 0xca, 0x62, 0x3f, 
 0x56, 0x74, 0xaf, 0xbe, 0x6e, 0x81, 0xc8, 0x3d, 0x4e, 0x1c, 0xd5, 0x3e, 
 0x37, 0xbc, 0x92, 0x3e, 0x00, 0xdd, 0x68, 0x3e, 0x89, 0x96, 0x84, 0xbe, 
 0x2e, 0x4b, 0xce, 0xbe, 0x7f, 0x90, 0xf7, 0x3d, 0x40, 0xca, 0xdf, 0xbe, 
 0x3f, 0xe5, 0x08, 0xbf, 0x92, 0x4f, 0x02, 0xbe, 0x01, 0xbb, 0xfc, 0x3d, 
 0x7a, 0x11, 0x01, 0xbf, 0x57, 0x1e, 0x36, 0xbf, 0xda, 0xfe, 0xff, 0xff, 
 0x04, 0x00, 0x00, 0x00, 0x40, 0x00, 0x00, 0x00, 0xd0, 0x21, 0xd6, 0x3e, 
 0xa7, 0x81, 0x7f, 0x3e, 0xf6, 0x81, 0xb5, 0x3c, 0x54, 0x33, 0xbd, 0x3e, 
 0xb0, 0xf7, 0x82, 0x3e, 0xb6, 0xf9, 0x40, 0x3e, 0xd9, 0x58, 0x88, 0xbd, 
 0x40, 0xdb, 0xbe, 0xbd, 0xb0, 0x0d, 0xa6, 0x3e, 0xe7, 0x0e, 0x0a, 0x3f, 
 0x14, 0x02, 0xeb, 0x3d, 0x8d, 0x43, 0xad, 0x3e, 0x01, 0x50, 0x9b, 0x3e, 
 0xc5, 0x4e, 0xb1, 0x3d, 0xf9, 0x26, 0x63, 0x3e, 0x8d, 0x8b, 0xbe, 0x3e, 
 0x26, 0xff, 0xff, 0xff, 0x04, 0x00, 0x00, 0x00, 0x0c, 0x00, 0x00, 0x00, 
 0x43, 0xc7, 0x87, 0xbe, 0x5b, 0x43, 0x29, 0x3e, 0x66, 0xad, 0xaf, 0x3d, 
 0x3e, 0xff, 0xff, 0xff, 0x04, 0x00, 0x00, 0x00, 0x20, 0x00, 0x00, 0x00, 
 0x5e, 0x19, 0x81, 0xbb, 0x6b, 0xaa, 0x05, 0xbd, 0xcf, 0xb7, 0x2b, 0x3e, 
 0x25, 0xc1, 0xd5, 0x3e, 0xff, 0x65, 0x52, 0x3e, 0x6f, 0x84, 0xbe, 0x3e, 
 0xfc, 0xc1, 0xb1, 0x3e, 0x77, 0x1d, 0x4b, 0xbd, 0x5c, 0xfa, 0xff, 0xff, 
 0x60, 0xfa, 0xff, 0xff, 0x0f, 0x00, 0x00, 0x00, 0x4d, 0x4c, 0x49, 0x52, 
 0x20, 0x43, 0x6f, 0x6e, 0x76, 0x65, 0x72, 0x74, 0x65, 0x64, 0x2e, 0x00, 
 0x01, 0x00, 0x00, 0x00, 0x14, 0x00, 0x00, 0x00, 0x00, 0x00, 0x0e, 0x00, 
 0x18, 0x00, 0x14, 0x00, 0x10, 0x00, 0x0c, 0x00, 0x08, 0x00, 0x04, 0x00, 
 0x0e, 0x00, 0x00, 0x00, 0x14, 0x00, 0x00, 0x00, 0x1c, 0x00, 0x00, 0x00, 
 0x24, 0x01, 0x00, 0x00, 0x28, 0x01, 0x00, 0x00, 0x2c, 0x01, 0x00, 0x00, 
 0x04, 0x00, 0x00, 0x00, 0x6d, 0x61, 0x69, 0x6e, 0x00, 0x00, 0x00, 0x00, 
 0x04, 0x00, 0x00, 0x00, 0xcc, 0x00, 0x00, 0x00, 0x84, 0x00, 0x00, 0x00, 
 0x50, 0x00, 0x00, 0x00, 0x14, 0x00, 0x00, 0x00, 0x00, 0x00, 0x0e, 0x00, 
 0x1a, 0x00, 0x14, 0x00, 0x10, 0x00, 0x0c, 0x00, 0x0b, 0x00, 0x04, 0x00, 
 0x0e, 0x00, 0x00, 0x00, 0x1c, 0x00, 0x00, 0x00, 0x00, 0x00, 0x00, 0x09, 
 0x1c, 0x00, 0x00, 0x00, 0x20, 0x00, 0x00, 0x00, 0x01, 0x00, 0x00, 0x00, 
 0x00, 0x00, 0x06, 0x00, 0x08, 0x00, 0x04, 0x00, 0x06, 0x00, 0x00, 0x00, 
 0x00, 0x00, 0x80, 0x3f, 0x01, 0x00, 0x00, 0x00, 0x0a, 0x00, 0x00, 0x00, 
 0x01, 0x00, 0x00, 0x00, 0x09, 0x00, 0x00, 0x00, 0x9a, 0xff, 0xff, 0xff, 
 0x10, 0x00, 0x00, 0x00, 0x00, 0x00, 0x00, 0x08, 0x0c, 0x00, 0x00, 0x00, 
 0x10, 0x00, 0x00, 0x00, 0x24, 0xfb, 0xff, 0xff, 0x01, 0x00, 0x00, 0x00, 
 0x09, 0x00, 0x00, 0x00, 0x03, 0x00, 0x00, 0x00, 0x08, 0x00, 0x00, 0x00, 
 0x06, 0x00, 0x00, 0x00, 0x02, 0x00, 0x00, 0x00, 0xca, 0xff, 0xff, 0xff, 
 0x10, 0x00, 0x00, 0x00, 0x00, 0x00, 0x00, 0x08, 0x10, 0x00, 0x00, 0x00, 
 0x14, 0x00, 0x00, 0x00, 0xba, 0xff, 0xff, 0xff, 0x00, 0x00, 0x00, 0x01, 
 0x01, 0x00, 0x00, 0x00, 0x08, 0x00, 0x00, 0x00, 0x03, 0x00, 0x00, 0x00, 
 0x07, 0x00, 0x00, 0x00, 0x05, 0x00, 0x00, 0x00, 0x01, 0x00, 0x00, 0x00, 
 0x00, 0x00, 0x0e, 0x00, 0x16, 0x00, 0x00, 0x00, 0x10, 0x00, 0x0c, 0x00, 
 0x0b, 0x00, 0x04, 0x00, 0x0e, 0x00, 0x00, 0x00, 0x18, 0x00, 0x00, 0x00, 
 0x00, 0x00, 0x00, 0x08, 0x18, 0x00, 0x00, 0x00, 0x1c, 0x00, 0x00, 0x00, 
 0x00, 0x00, 0x06, 0x00, 0x08, 0x00, 0x07, 0x00, 0x06, 0x00, 0x00, 0x00, 
 0x00, 0x00, 0x00, 0x01, 0x01, 0x00, 0x00, 0x00, 0x07, 0x00, 0x00, 0x00, 
 0x03, 0x00, 0x00, 0x00, 0x00, 0x00, 0x00, 0x00, 0x04, 0x00, 0x00, 0x00, 
 0x03, 0x00, 0x00, 0x00, 0x01, 0x00, 0x00, 0x00, 0x0a, 0x00, 0x00, 0x00, 
 0x01, 0x00, 0x00, 0x00, 0x00, 0x00, 0x00, 0x00, 0x0b, 0x00, 0x00, 0x00, 
 0x04, 0x04, 0x00, 0x00, 0x94, 0x03, 0x00, 0x00, 0x24, 0x03, 0x00, 0x00, 
 0xd0, 0x02, 0x00, 0x00, 0x88, 0x02, 0x00, 0x00, 0x3c, 0x02, 0x00, 0x00, 
 0xf0, 0x01, 0x00, 0x00, 0x68, 0x01, 0x00, 0x00, 0xd8, 0x00, 0x00, 0x00, 
 0x60, 0x00, 0x00, 0x00, 0x04, 0x00, 0x00, 0x00, 0x3e, 0xfc, 0xff, 0xff, 
 0x00, 0x00, 0x00, 0x01, 0x14, 0x00, 0x00, 0x00, 0x1c, 0x00, 0x00, 0x00, 
 0x1c, 0x00, 0x00, 0x00, 0x0b, 0x00, 0x00, 0x00, 0x34, 0x00, 0x00, 0x00, 
 0x02, 0x00, 0x00, 0x00, 0xff, 0xff, 0xff, 0xff, 0x03, 0x00, 0x00, 0x00, 
 0x28, 0xfc, 0xff, 0xff, 0x19, 0x00, 0x00, 0x00, 0x53, 0x74, 0x61, 0x74, 
 0x65, 0x66, 0x75, 0x6c, 0x50, 0x61, 0x72, 0x74, 0x69, 0x74, 0x69, 0x6f, 
 0x6e, 0x65, 0x64, 0x43, 0x61, 0x6c, 0x6c, 0x3a, 0x30, 0x00, 0x00, 0x00, 
 0x02, 0x00, 0x00, 0x00, 0x01, 0x00, 0x00, 0x00, 0x03, 0x00, 0x00, 0x00, 
 0x96, 0xfc, 0xff, 0xff, 0x00, 0x00, 0x00, 0x01, 0x14, 0x00, 0x00, 0x00, 
 0x1c, 0x00, 0x00, 0x00, 0x1c, 0x00, 0x00, 0x00, 0x0a, 0x00, 0x00, 0x00, 
 0x50, 0x00, 0x00, 0x00, 0x02, 0x00, 0x00, 0x00, 0xff, 0xff, 0xff, 0xff, 
 0x03, 0x00, 0x00, 0x00, 0x80, 0xfc, 0xff, 0xff, 0x34, 0x00, 0x00, 0x00, 
 0x73, 0x65, 0x71, 0x75, 0x65, 0x6e, 0x74, 0x69, 0x61, 0x6c, 0x2f, 0x64, 
 0x65, 0x6e, 0x73, 0x65, 0x5f, 0x32, 0x2f, 0x4d, 0x61, 0x74, 0x4d, 0x75, 
 0x6c, 0x3b, 0x73, 0x65, 0x71, 0x75, 0x65, 0x6e, 0x74, 0x69, 0x61, 0x6c, 
 0x2f, 0x64, 0x65, 0x6e, 0x73, 0x65, 0x5f, 0x32, 0x2f, 0x42, 0x69, 0x61, 
 0x73, 0x41, 0x64, 0x64, 0x00, 0x00, 0x00, 0x00, 0x02, 0x00, 0x00, 0x00, 
 0x01, 0x00, 0x00, 0x00, 0x03, 0x00, 0x00, 0x00, 0x0a, 0xfd, 0xff, 0xff, 
 0x00, 0x00, 0x00, 0x01, 0x14, 0x00, 0x00, 0x00, 0x1c, 0x00, 0x00, 0x00, 
 0x1c, 0x00, 0x00, 0x00, 0x09, 0x00, 0x00, 0x00, 0x68, 0x00, 0x00, 0x00, 
 0x02, 0x00, 0x00, 0x00, 0xff, 0xff, 0xff, 0xff, 0x08, 0x00, 0x00, 0x00, 
 0xf4, 0xfc, 0xff, 0xff, 0x4c, 0x00, 0x00, 0x00, 0x73, 0x65, 0x71, 0x75, 
 0x65, 0x6e, 0x74, 0x69, 0x61, 0x6c, 0x2f, 0x64, 0x65, 0x6e, 0x73, 0x65, 
 0x5f, 0x31, 0x2f, 0x4d, 0x61, 0x74, 0x4d, 0x75, 0x6c, 0x3b, 0x73, 0x65, 
 0x71, 0x75, 0x65, 0x6e, 0x74, 0x69, 0x61, 0x6c, 0x2f, 0x64, 0x65, 0x6e, 
 0x73, 0x65, 0x5f, 0x31, 0x2f, 0x52, 0x65, 0x6c, 0x75, 0x3b, 0x73, 0x65, 
 0x71, 0x75, 0x65, 0x6e, 0x74, 0x69, 0x61, 0x6c, 0x2f, 0x64, 0x65, 0x6e, 
 0x73, 0x65, 0x5f, 0x31, 0x2f, 0x42, 0x69, 0x61, 0x73, 0x41, 0x64, 0x64, 
 0x00, 0x00, 0x00, 0x00, 0x02, 0x00, 0x00, 0x00, 0x01, 0x00, 0x00, 0x00, 
 0x08, 0x00, 0x00, 0x00, 0x96, 0xfd, 0xff, 0xff, 0x00, 0x00, 0x00, 0x01, 
 0x14, 0x00, 0x00, 0x00, 0x1c, 0x00, 0x00, 0x00, 0x1c, 0x00, 0x00, 0x00, 
 0x08, 0x00, 0x00, 0x00, 0x60, 0x00, 0x00, 0x00, 0x02, 0x00, 0x00, 0x00, 
 0xff, 0xff, 0xff, 0xff, 0x10, 0x00, 0x00, 0x00, 0x80, 0xfd, 0xff, 0xff, 
 0x46, 0x00, 0x00, 0x00, 0x73, 0x65, 0x71, 0x75, 0x65, 0x6e, 0x74, 0x69, 
 0x61, 0x6c, 0x2f, 0x64, 0x65, 0x6e, 0x73, 0x65, 0x2f, 0x4d, 0x61, 0x74, 
 0x4d, 0x75, 0x6c, 0x3b, 0x73, 0x65, 0x71, 0x75, 0x65, 0x6e, 0x74, 0x69, 
 0x61, 0x6c, 0x2f, 0x64, 0x65, 0x6e, 0x73, 0x65, 0x2f, 0x52, 0x65, 0x6c, 
 0x75, 0x3b, 0x73, 0x65, 0x71, 0x75, 0x65, 0x6e, 0x74, 0x69, 0x61, 0x6c, 
 0x2f, 0x64, 0x65, 0x6e, 0x73, 0x65, 0x2f, 0x42, 0x69, 0x61, 0x73, 0x41, 
 0x64, 0x64, 0x00, 0x00, 0x02, 0x00, 0x00, 0x00, 0x01, 0x00, 0x00, 0x00, 
 0x10, 0x00, 0x00, 0x00, 0x86, 0xfe, 0xff, 0xff, 0x00, 0x00, 0x00, 0x01, 
 0x10, 0x00, 0x00, 0x00, 0x10, 0x00, 0x00, 0x00, 0x07, 0x00, 0x00, 0x00, 
 0x28, 0x00, 0x00, 0x00, 0xf4, 0xfd, 0xff, 0xff, 0x19, 0x00, 0x00, 0x00, 
 0x73, 0x65, 0x71, 0x75, 0x65, 0x6e, 0x74, 0x69, 0x61, 0x6c, 0x2f, 0x64, 
 0x65, 0x6e, 0x73, 0x65, 0x5f, 0x32, 0x2f, 0x4d, 0x61, 0x74, 0x4d, 0x75, 
 0x6c, 0x00, 0x00, 0x00, 0x02, 0x00, 0x00, 0x00, 0x03, 0x00, 0x00, 0x00, 
 0x08, 0x00, 0x00, 0x00, 0xce, 0xfe, 0xff, 0xff, 0x00, 0x00, 0x00, 0x01, 
 0x10, 0x00, 0x00, 0x00, 0x10, 0x00, 0x00, 0x00, 0x06, 0x00, 0x00, 0x00, 
 0x28, 0x00, 0x00, 0x00, 0x3c, 0xfe, 0xff, 0xff, 0x19, 0x00, 0x00, 0x00, 
 0x73, 0x65, 0x71, 0x75, 0x65, 0x6e, 0x74, 0x69, 0x61, 0x6c, 0x2f, 0x64, 
 0x65, 0x6e, 0x73, 0x65, 0x5f, 0x31, 0x2f, 0x4d, 0x61, 0x74, 0x4d, 0x75, 
 0x6c, 0x00, 0x00, 0x00, 0x02, 0x00, 0x00, 0x00, 0x08, 0x00, 0x00, 0x00, 
 0x10, 0x00, 0x00, 0x00, 0x16, 0xff, 0xff, 0xff, 0x00, 0x00, 0x00, 0x01, 
 0x10, 0x00, 0x00, 0x00, 0x10, 0x00, 0x00, 0x00, 0x05, 0x00, 0x00, 0x00, 
 0x24, 0x00, 0x00, 0x00, 0x84, 0xfe, 0xff, 0xff, 0x17, 0x00, 0x00, 0x00, 
 0x73, 0x65, 0x71, 0x75, 0x65, 0x6e, 0x74, 0x69, 0x61, 0x6c, 0x2f, 0x64, 
 0x65, 0x6e, 0x73, 0x65, 0x2f, 0x4d, 0x61, 0x74, 0x4d, 0x75, 0x6c, 0x00, 
 0x02, 0x00, 0x00, 0x00, 0x10, 0x00, 0x00, 0x00, 0x0e, 0x00, 0x00, 0x00, 
 0x5a, 0xff, 0xff, 0xff, 0x00, 0x00, 0x00, 0x01, 0x10, 0x00, 0x00, 0x00, 
 0x10, 0x00, 0x00, 0x00, 0x04, 0x00, 0x00, 0x00, 0x34, 0x00, 0x00, 0x00, 
 0xc8, 0xfe, 0xff, 0xff, 0x27, 0x00, 0x00, 0x00, 0x73, 0x65, 0x71, 0x75, 
 0x65, 0x6e, 0x74, 0x69, 0x61, 0x6c, 0x2f, 0x64, 0x65, 0x6e, 0x73, 0x65, 
 0x2f, 0x42, 0x69, 0x61, 0x73, 0x41, 0x64, 0x64, 0x2f, 0x52, 0x65, 0x61, 
 0x64, 0x56, 0x61, 0x72, 0x69, 0x61, 0x62, 0x6c, 0x65, 0x4f, 0x70, 0x00, 
 0x01, 0x00, 0x00, 0x00, 0x10, 0x00, 0x00, 0x00, 0xaa, 0xff, 0xff, 0xff, 
 0x00, 0x00, 0x00, 0x01, 0x10, 0x00, 0x00, 0x00, 0x10, 0x00, 0x00, 0x00, 
 0x03, 0x00, 0x00, 0x00, 0x38, 0x00, 0x00, 0x00, 0x18, 0xff, 0xff, 0xff, 
 0x29, 0x00, 0x00, 0x00, 0x73, 0x65, 0x71, 0x75, 0x65, 0x6e, 0x74, 0x69, 
 0x61, 0x6c, 0x2f, 0x64, 0x65, 0x6e, 0x73, 0x65, 0x5f, 0x32, 0x2f, 0x42, 
 0x69, 0x61, 0x73, 0x41, 0x64, 0x64, 0x2f, 0x52, 0x65, 0x61, 0x64, 0x56, 
 0x61, 0x72, 0x69, 0x61, 0x62, 0x6c, 0x65, 0x4f, 0x70, 0x00, 0x00, 0x00, 
 0x01, 0x00, 0x00, 0x00, 0x03, 0x00, 0x00, 0x00, 0x00, 0x00, 0x16, 0x00, 
 0x18, 0x00, 0x14, 0x00, 0x00, 0x00, 0x10, 0x00, 0x0c, 0x00, 0x08, 0x00, 
 0x00, 0x00, 0x00, 0x00, 0x00, 0x00, 0x07, 0x00, 0x16, 0x00, 0x00, 0x00, 
 0x00, 0x00, 0x00, 0x01, 0x10, 0x00, 0x00, 0x00, 0x10, 0x00, 0x00, 0x00, 
 0x02, 0x00, 0x00, 0x00, 0x38, 0x00, 0x00, 0x00, 0x84, 0xff, 0xff, 0xff, 
 0x29, 0x00, 0x00, 0x00, 0x73, 0x65, 0x71, 0x75, 0x65, 0x6e, 0x74, 0x69, 
 0x61, 0x6c, 0x2f, 0x64, 0x65, 0x6e, 0x73, 0x65, 0x5f, 0x31, 0x2f, 0x42, 
 0x69, 0x61, 0x73, 0x41, 0x64, 0x64, 0x2f, 0x52, 0x65, 0x61, 0x64, 0x56, 
 0x61, 0x72, 0x69, 0x61, 0x62, 0x6c, 0x65, 0x4f, 0x70, 0x00, 0x00, 0x00, 
 0x01, 0x00, 0x00, 0x00, 0x08, 0x00, 0x00, 0x00, 0x00, 0x00, 0x16, 0x00, 
 0x1c, 0x00, 0x18, 0x00, 0x00, 0x00, 0x14, 0x00, 0x10, 0x00, 0x0c, 0x00, 
 0x00, 0x00, 0x00, 0x00, 0x08, 0x00, 0x07, 0x00, 0x16, 0x00, 0x00, 0x00, 
 0x00, 0x00, 0x00, 0x01, 0x14, 0x00, 0x00, 0x00, 0x20, 0x00, 0x00, 0x00, 
 0x20, 0x00, 0x00, 0x00, 0x01, 0x00, 0x00, 0x00, 0x3c, 0x00, 0x00, 0x00, 
 0x02, 0x00, 0x00, 0x00, 0xff, 0xff, 0xff, 0xff, 0x0e, 0x00, 0x00, 0x00, 
 0x04, 0x00, 0x04, 0x00, 0x04, 0x00, 0x00, 0x00, 0x1d, 0x00, 0x00, 0x00, 
 0x73, 0x65, 0x72, 0x76, 0x69, 0x6e, 0x67, 0x5f, 0x64, 0x65, 0x66, 0x61, 
 0x75, 0x6c, 0x74, 0x5f, 0x64, 0x65, 0x6e, 0x73, 0x65, 0x5f, 0x69, 0x6e, 
 0x70, 0x75, 0x74, 0x3a, 0x30, 0x00, 0x00, 0x00, 0x02, 0x00, 0x00, 0x00, 
 0x01, 0x00, 0x00, 0x00, 0x0e, 0x00, 0x00, 0x00, 0x02, 0x00, 0x00, 0x00, 
 0x20, 0x00, 0x00, 0x00, 0x04, 0x00, 0x00, 0x00, 0xf4, 0xff, 0xff, 0xff, 
 0x19, 0x00, 0x00, 0x00, 0x00, 0x00, 0x00, 0x19, 0x0c, 0x00, 0x0c, 0x00, 
 0x0b, 0x00, 0x00, 0x00, 0x00, 0x00, 0x04, 0x00, 0x0c, 0x00, 0x00, 0x00, 
 0x09, 0x00, 0x00, 0x00, 0x00, 0x00, 0x00, 0x09, 
};
const size_t model_data_len = sizeof(model_data);

#endif // MODEL_DATA_H
