#ifndef MODEL_DATA_H
#define MODEL_DATA_H

#include <stddef.h>

const unsigned char model_data[] = {

 0x1c, 0x00, 0x00, 0x00, 0x54, 0x46, 0x4c, 0x33, 0x14, 0x00, 0x20, 0x00, 
 0x1c, 0x00, 0x18, 0x00, 0x14, 0x00, 0x10, 0x00, 0x0c, 0x00, 0x00, 0x00, 
 0x08, 0x00, 0x04, 0x00, 0x14, 0x00, 0x00, 0x00, 0x1c, 0x00, 0x00, 0x00, 
 0x90, 0x00, 0x00, 0x00, 0xe8, 0x00, 0x00, 0x00, 0x08, 0x08, 0x00, 0x00, 
 0x18, 0x08, 0x00, 0x00, 0xd4, 0x0d, 0x00, 0x00, 0x03, 0x00, 0x00, 0x00, 
 0x01, 0x00, 0x00, 0x00, 0x10, 0x00, 0x00, 0x00, 0x00, 0x00, 0x0a, 0x00, 
 0x10, 0x00, 0x0c, 0x00, 0x08, 0x00, 0x04, 0x00, 0x0a, 0x00, 0x00, 0x00, 
 0x0c, 0x00, 0x00, 0x00, 0x1c, 0x00, 0x00, 0x00, 0x38, 0x00, 0x00, 0x00, 
 0x0f, 0x00, 0x00, 0x00, 0x73, 0x65, 0x72, 0x76, 0x69, 0x6e, 0x67, 0x5f, 
 0x64, 0x65, 0x66, 0x61, 0x75, 0x6c, 0x74, 0x00, 0x01, 0x00, 0x00, 0x00, 
 0x04, 0x00, 0x00, 0x00, 0x98, 0xff, 0xff, 0xff, 0x0a, 0x00, 0x00, 0x00, 
 0x04, 0x00, 0x00, 0x00, 0x07, 0x00, 0x00, 0x00, 0x64, 0x65, 0x6e, 0x73, 
 0x65, 0x5f, 0x32, 0x00, 0x01, 0x00, 0x00, 0x00, 0x04, 0x00, 0x00, 0x00, 
 0xda, 0xf7, 0xff, 0xff, 0x04, 0x00, 0x00, 0x00, 0x0b, 0x00, 0x00, 0x00, 
 0x64, 0x65, 0x6e, 0x73, 0x65, 0x5f, 0x69, 0x6e, 0x70, 0x75, 0x74, 0x00, 
 0x02, 0x00, 0x00, 0x00, 0x34, 0x00, 0x00, 0x00, 0x04, 0x00, 0x00, 0x00, 
 0xdc, 0xff, 0xff, 0xff, 0x0d, 0x00, 0x00, 0x00, 0x04, 0x00, 0x00, 0x00, 
 0x13, 0x00, 0x00, 0x00, 0x43, 0x4f, 0x4e, 0x56, 0x45, 0x52, 0x53, 0x49, 
 0x4f, 0x4e, 0x5f, 0x4d, 0x45, 0x54, 0x41, 0x44, 0x41, 0x54, 0x41, 0x00, 
 0x08, 0x00, 0x0c, 0x00, 0x08, 0x00, 0x04, 0x00, 0x08, 0x00, 0x00, 0x00, 
 0x0c, 0x00, 0x00, 0x00, 0x04, 0x00, 0x00, 0x00, 0x13, 0x00, 0x00, 0x00, 
 0x6d, 0x69, 0x6e, 0x5f, 0x72, 0x75, 0x6e, 0x74, 0x69, 0x6d, 0x65, 0x5f, 
 0x76, 0x65, 0x72, 0x73, 0x69, 0x6f, 0x6e, 0x00, 0x0e, 0x00, 0x00, 0x00, 
 0x1c, 0x07, 0x00, 0x00, 0x14, 0x07, 0x00, 0x00, 0xe4, 0x06, 0x00, 0x00, 
 0xc8, 0x06, 0x00, 0x00, 0x78, 0x06, 0x00, 0x00, 0x28, 0x03, 0x00, 0x00, 
 0x18, 0x01, 0x00, 0x00, 0xa8, 0x00, 0x00, 0x00, 0xa0, 0x00, 0x00, 0x00, 
 0x98, 0x00, 0x00, 0x00, 0x90, 0x00, 0x00, 0x00, 0x88, 0x00, 0x00, 0x00, 
 0x68, 0x00, 0x00, 0x00, 0x04, 0x00, 0x00, 0x00, 0x8a, 0xf8, 0xff, 0xff, 
 0x04, 0x00, 0x00, 0x00, 0x54, 0x00, 0x00, 0x00, 0x0c, 0x00, 0x00, 0x00, 
 0x08, 0x00, 0x0e, 0x00, 0x08, 0x00, 0x04, 0x00, 0x08, 0x00, 0x00, 0x00, 
 0x10, 0x00, 0x00, 0x00, 0x24, 0x00, 0x00, 0x00, 0x00, 0x00, 0x06, 0x00, 
 0x08, 0x00, 0x04, 0x00, 0x06, 0x00, 0x00, 0x00, 0x04, 0x00, 0x00, 0x00, 
 0x00, 0x00, 0x00, 0x00, 0x00, 0x00, 0x0a, 0x00, 0x10, 0x00, 0x0c, 0x00, 
 0x08, 0x00, 0x04, 0x00, 0x0a, 0x00, 0x00, 0x00, 0x02, 0x00, 0x00, 0x00, 
 0x02, 0x00, 0x00, 0x00, 0x04, 0x00, 0x00, 0x00, 0x06, 0x00, 0x00, 0x00, 
 0x32, 0x2e, 0x31, 0x33, 0x2e, 0x30, 0x00, 0x00, 0xea, 0xf8, 0xff, 0xff, 
 0x04, 0x00, 0x00, 0x00, 0x10, 0x00, 0x00, 0x00, 0x31, 0x2e, 0x35, 0x2e, 
 0x30, 0x00, 0x00, 0x00, 0x00, 0x00, 0x00, 0x00, 0x00, 0x00, 0x00, 0x00, 
 0xf8, 0xf3, 0xff, 0xff, 0xfc, 0xf3, 0xff, 0xff, 0x00, 0xf4, 0xff, 0xff, 
 0x04, 0xf4, 0xff, 0xff, 0x16, 0xf9, 0xff, 0xff, 0x04, 0x00, 0x00, 0x00, 
 0x60, 0x00, 0x00, 0x00, 0x50, 0xaf, 0x9b, 0xbf, 0xcf, 0x11, 0x13, 0xbf, 
 0xf2, 0x42, 0x72, 0xbf, 0x62, 0x78, 0x85, 0x3f, 0x00, 0x45, 0x5b, 0x3f, 
 0xc3, 0x34, 0xef, 0xbf, 0x70, 0xc5, 0x89, 0x3f, 0xd1, 0xc2, 0x25, 0xbf, 
 0xcf, 0xc8, 0xd2, 0xbe, 0x0a, 0x08, 0xc0, 0x3e, 0x71, 0xaa, 0xba, 0x3e, 
 0x63, 0x0d, 0xac, 0xbf, 0x00, 0x07, 0xef, 0xbd, 0x25, 0xf4, 0x34, 0x3e, 
 0x0e, 0x66, 0x4e, 0x3f, 0xc5, 0x76, 0x2a, 0x3f, 0x67, 0x02, 0x92, 0x3f, 
 0xb0, 0x96, 0x8a, 0x3f, 0x8a, 0x12, 0xc2, 0xbe, 0x9c, 0x12, 0xa8, 0x3e, 
 0x0e, 0xae, 0xb0, 0xbf, 0x87, 0xfd, 0x36, 0x3f, 0x96, 0xfb, 0x86, 0xbf, 
 0x29, 0xd6, 0x49, 0xbf, 0x82, 0xf9, 0xff, 0xff, 0x04, 0x00, 0x00, 0x00, 
 0x00, 0x02, 0x00, 0x00, 0xe4, 0xbd, 0x03, 0x3f, 0xb2, 0xbf, 0x2b, 0xbf, 
 0xfe, 0x13, 0xa5, 0xbe, 0xda, 0x76, 0x68, 0xbf, 0x0b, 0xa4, 0x17, 0x3f, 
 0x6c, 0x4a, 0x71, 0xbf, 0x41, 0x67, 0xb1, 0x3e, 0x46, 0xc4, 0xd6, 0xbe, 
 0x8a, 0x68, 0xa8, 0x3e, 0x39, 0xe3, 0x90, 0xbe, 0xfc, 0x6d, 0x1a, 0x3e, 
 0x5d, 0x3d, 0x2a, 0x3e, 0x9b, 0x6b, 0x47, 0x3e, 0x29, 0x9d, 0xcd, 0xbe, 
 0x2d, 0x50, 0x2e, 0xbf, 0x96, 0xf0, 0x73, 0x3f, 0x9b, 0x62, 0xdb, 0x3c, 
 0x00, 0x04, 0x8d, 0xbe, 0x2a, 0x9c, 0x01, 0x3d, 0x9d, 0xa8, 0xab, 0x3d, 
 0x93, 0xbf, 0x49, 0x3f, 0x4b, 0xc6, 0x6c, 0x3f, 0x9c, 0x9c, 0xa2, 0xbf, 
 0xd9, 0x5f, 0x66, 0x3f, 0x28, 0x61, 0xd9, 0x3e, 0x85, 0xe1, 0x35, 0xbe, 
 0xdc, 0x06, 0xf1, 0xbe, 0xfb, 0xf1, 0x44, 0x3f, 0x5a, 0xd3, 0x69, 0xbf, 
 0xc5, 0x93, 0x86, 0xbf, 0x8f, 0x13, 0x1a, 0x3f, 0xde, 0xe8, 0x5e, 0x3f, 
 0xac, 0xe0, 0xa4, 0xbe, 0x0c, 0xd0, 0xb5, 0x3d, 0x9d, 0x6b, 0x0c, 0x3f, 
 0xf9, 0xa8, 0x0f, 0x3f, 0x3c, 0xc7, 0xbe, 0x3e, 0xbb, 0x16, 0xbb, 0x3d, 
 0x9f, 0x6b, 0x60, 0x3d, 0x5d, 0x8e, 0xba, 0x3e, 0xac, 0x1b, 0x1c, 0xbe, 
 0x76, 0x8f, 0x18, 0xbe, 0x0a, 0x9d, 0xf5, 0xbc, 0x5e, 0x52, 0xa8, 0x3e, 
 0x09, 0x4e, 0x0c, 0x3f, 0xbe, 0x20, 0xf6, 0xbe, 0x44, 0x81, 0xad, 0x3e, 
 0x0e, 0xa1, 0x30, 0x3f, 0xe8, 0xf0, 0x73, 0x3e, 0x55, 0x7d, 0x7b, 0x3e, 
 0x80, 0x70, 0x67, 0xbe, 0x7f, 0x5b, 0x63, 0xbe, 0x70, 0x3b, 0xc9, 0xbe, 
 0x88, 0xf3, 0x49, 0xbf, 0x1a, 0xaf, 0x79, 0x3e, 0xe1, 0xfe, 0xf0, 0xbd, 
 0x59, 0xe3, 0x6f, 0x3e, 0xb0, 0xe0, 0x37, 0x3f, 0xd0, 0x8f, 0x6f, 0x3e, 
 0xb0, 0x48, 0x05, 0xbf, 0x98, 0x04, 0xe4, 0x3e, 0x83, 0xee, 0x95, 0x3f, 
 0xc4, 0x1f, 0x86, 0xbe, 0x73, 0x63, 0x8e, 0xbe, 0x18, 0x42, 0x7b, 0xbe, 
 0x95, 0x9d, 0x9c, 0x3f, 0x50, 0x6f, 0x27, 0xbb, 0xb5, 0x93, 0x09, 0x3f, 
 0x1b, 0x32, 0x97, 0xbd, 0xaa, 0xa0, 0xbc, 0xbe, 0x33, 0xd1, 0xb0, 0xbe, 
 0xf5, 0xff, 0x93, 0xbe, 0x4d, 0xbf, 0x1a, 0xbe, 0xdb, 0xaf, 0x7e, 0x3f, 
 0x3d, 0xf4, 0x54, 0x3f, 0x04, 0x7e, 0x9e, 0xbe, 0x43, 0xbc, 0x58, 0x3f, 
 0x0b, 0xd6, 0xb7, 0x3f, 0xad, 0x70, 0xaf, 0x3e, 0xf0, 0x94, 0x2e, 0xbd, 
 0xc5, 0x7d, 0xa0, 0x3f, 0x5a, 0x2a, 0x38, 0xbf, 0xd3, 0x5e, 0x3e, 0x3e, 
 0x42, 0xc5, 0x9f, 0xbe, 0xf1, 0x61, 0x95, 0x3f, 0xd4, 0x9b, 0x87, 0x3f, 
 0xe9, 0xbf, 0x1b, 0x3e, 0x81, 0xad, 0x2e, 0x3f, 0xe1, 0x67, 0x83, 0x3f, 
 0x27, 0x89, 0xb4, 0xbe, 0x2e, 0xf8, 0x32, 0xbe, 0x58, 0x57, 0xdd, 0xbe, 
 0xf7, 0x09, 0xf4, 0xbc, 0x53, 0xd3, 0xb8, 0xbd, 0xe6, 0xc9, 0x56, 0xbe, 
 0xc1, 0x41, 0xdb, 0x3e, 0xbc, 0x6b, 0x3d, 0xbf, 0x96, 0xc6, 0x82, 0x3f, 
 0x49, 0x06, 0x4d, 0x3d, 0x4b, 0x8b, 0x0c, 0x3f, 0x4f, 0xbd, 0x34, 0xbf, 
 0xcd, 0x19, 0x8d, 0xbb, 0xa1, 0xfe, 0x12, 0x3e, 0x32, 0x3b, 0x5b, 0xbf, 
 0x9f, 0xc9, 0xdf, 0xbb, 0x24, 0x24, 0xa5, 0x3f, 0xc3, 0x71, 0x89, 0x3f, 
 0x8a, 0x26, 0x96, 0xbe, 0xb0, 0xa5, 0x06, 0x3f, 0xa0, 0x66, 0xb0, 0x3f, 
 0x38, 0x5d, 0x2c, 0x3f, 0x6b, 0xbb, 0xb7, 0x3d, 0x35, 0x09, 0x1b, 0xbe, 
 0xbd, 0x0a, 0x06, 0x3f, 0xfd, 0x4e, 0x0d, 0x3d, 0xc7, 0x87, 0x88, 0xbe, 
 0x38, 0x66, 0x94, 0x3d, 0xd0, 0x2f, 0x1a, 0x3e, 0xe7, 0xd1, 0xa1, 0x3e, 
 0xe8, 0x24, 0x2d, 0xbf, 0xe3, 0xdb, 0xa6, 0xbe, 0x23, 0xa7, 0x47, 0x3e, 
 0xac, 0x17, 0x96, 0x3e, 0x53, 0x09, 0x41, 0x3f, 0x6b, 0x37, 0x52, 0xbe, 
 0x1d, 0x9a, 0xb5, 0xbe, 0x9c, 0x38, 0xdf, 0x3e, 0x39, 0x35, 0x80, 0xbe, 
 0x8e, 0xfb, 0xff, 0xff, 0x04, 0x00, 0x00, 0x00, 0x40, 0x03, 0x00, 0x00, 
 0x19, 0xf1, 0x1f, 0x3f, 0x48, 0xf0, 0x22, 0xbe, 0x1a, 0x26, 0x0b, 0xbe, 
 0x62, 0x76, 0xae, 0x3e, 0xf5, 0x26, 0x6c, 0x3e, 0x55, 0x5b, 0xd3, 0x3e, 
 0xea, 0x3e, 0xcd, 0xbe, 0x5e, 0x18, 0x88, 0x3e, 0xca, 0xca, 0xc1, 0x3e, 
 0x05, 0x83, 0x32, 0x3e, 0xc6, 0xc6, 0xe4, 0x3e, 0x8c, 0x72, 0x11, 0x3f, 
 0x76, 0x9c, 0x1e, 0x3e, 0xaa, 0xe4, 0xa9, 0x3d, 0x67, 0xc8, 0x1c, 0xbe, 
 0x24, 0x18, 0x7b, 0x3d, 0x2c, 0x5c, 0xd8, 0xbe, 0x9a, 0x84, 0x50, 0xbe, 
 0x96, 0x7f, 0xa9, 0xbe, 0xe0, 0x2d, 0x54, 0x3e, 0x7a, 0xfd, 0x63, 0xbe, 
 0x8b, 0x3a, 0x3b, 0xbf, 0x19, 0x32, 0x29, 0xbf, 0xf4, 0x03, 0x44, 0xbf, 
 0x8b, 0xf4, 0xbb, 0xbe, 0x9d, 0xd5, 0x99, 0xbd, 0xf3, 0xda, 0xf6, 0x3b, 
 0x21, 0x91, 0xaf, 0x3e, 0xf6, 0x09, 0x52, 0x3c, 0x60, 0x62, 0xcc, 0x3e, 
 0xdc, 0xfb, 0xe8, 0xbb, 0x63, 0x7a, 0xfc, 0x3b, 0xb3, 0xb8, 0xd5, 0x3e, 
 0x33, 0xe9, 0x93, 0x3e, 0xd0, 0x5a, 0xdc, 0x3d, 0x74, 0xec, 0xb1, 0xbe, 
 0x00, 0x39, 0x2a, 0x3d, 0x73, 0xad, 0x1e, 0x3e, 0x7b, 0xb0, 0x34, 0x3e, 
 0x6b, 0x98, 0x07, 0xbf, 0xec, 0xc8, 0xc2, 0x3e, 0x8e, 0x52, 0x10, 0x3f, 
 0x0a, 0x36, 0x06, 0x3f, 0x04, 0x8f, 0xe5, 0x3d, 0xa4, 0x5f, 0x90, 0x3e, 
 0xcc, 0x72, 0x13, 0xbe, 0x07, 0x34, 0xf2, 0x3c, 0x3f, 0x60, 0x6d, 0x3d, 
 0xac, 0x73, 0xfe, 0x3d, 0x87, 0xd1, 0x05, 0x3f, 0x45, 0xb7, 0x1b, 0xbe, 
 0xa4, 0xfb, 0x05, 0xbf, 0x5a, 0x64, 0xd9, 0x3e, 0xc2, 0xb9, 0x2c, 0xbd, 
 0x32, 0xb9, 0x85, 0xbe, 0x0d, 0xfa, 0x47, 0x3f, 0x22, 0x1c, 0x5a, 0x3e, 
 0xfb, 0x9e, 0xfb, 0x3e, 0x1f, 0x44, 0x3d, 0x3e, 0x4e, 0xfd, 0x02, 0x3e, 
 0x24, 0x71, 0x0f, 0x3e, 0x81, 0x81, 0x2e, 0x3e, 0x61, 0xad, 0x64, 0x3e, 
 0x3b, 0x11, 0xe0, 0x3e, 0x02, 0x96, 0xf5, 0x3e, 0x68, 0xad, 0x6b, 0xbd, 
 0x47, 0xf1, 0x0e, 0xbe, 0x3a, 0x81, 0xe8, 0xbe, 0xe5, 0x85, 0x12, 0x3f, 
 0xe4, 0x3b, 0x8b, 0x3f, 0xa0, 0x45, 0x81, 0x3f, 0xfa, 0xae, 0x16, 0xbe, 
 0x05, 0x22, 0xf7, 0x3e, 0xea, 0x4d, 0xeb, 0x3e, 0xf6, 0x41, 0xed, 0x3e, 
 0x33, 0x00, 0x5c, 0xbc, 0x1e, 0x8e, 0xb8, 0x3d, 0xb0, 0xbb, 0x44, 0x3f, 
 0xe5, 0x33, 0x31, 0x3f, 0x54, 0x83, 0xa4, 0xbe, 0xc8, 0x8f, 0xb3, 0x3d, 
 0x7b, 0xd8, 0x0d, 0x3f, 0xf8, 0x2f, 0xbf, 0xbe, 0xbf, 0x35, 0xd5, 0xbe, 
 0x0d, 0xbb, 0xc4, 0xbe, 0x68, 0x96, 0x31, 0xbf, 0x5c, 0x37, 0x37, 0x3d, 
 0x72, 0xfc, 0xf9, 0x3d, 0xa6, 0x75, 0x94, 0xbd, 0x26, 0x3d, 0xdb, 0x3e, 
 0x23, 0xfd, 0xc6, 0xbe, 0xdf, 0x13, 0xd1, 0x3e, 0xe1, 0x30, 0x2c, 0xbe, 
 0x35, 0x76, 0xd2, 0x3d, 0xfd, 0xbe, 0x56, 0x3e, 0x74, 0x9d, 0x7e, 0x3f, 
 0xc6, 0xbe, 0x50, 0x3f, 0xed, 0x54, 0xd9, 0x3e, 0xb2, 0x6e, 0x31, 0xbd, 
 0xd9, 0xec, 0x13, 0x3e, 0xf4, 0xff, 0x58, 0x3d, 0xcf, 0xe3, 0xcb, 0x3e, 
 0xa1, 0x71, 0x39, 0x3e, 0x12, 0xfb, 0x23, 0x3f, 0xea, 0xe4, 0xc9, 0x3e, 
 0xab, 0x9d, 0xfb, 0xbe, 0x47, 0xbe, 0xd6, 0xbe, 0x72, 0x6c, 0x3d, 0x3f, 
 0x01, 0x4a, 0x99, 0xbd, 0xad, 0x1c, 0x97, 0x3e, 0x77, 0x74, 0x89, 0x3e, 
 0x86, 0x51, 0x1d, 0x3e, 0x61, 0x5e, 0x20, 0x3d, 0x4b, 0xf0, 0xfd, 0x3e, 
 0x4c, 0x8e, 0x07, 0x3d, 0xaa, 0xaf, 0xa5, 0x3c, 0x7a, 0x51, 0x5e, 0x3e, 
 0xc8, 0x5d, 0x01, 0xbf, 0x76, 0x1b, 0x0c, 0x3f, 0xd7, 0x6c, 0xf9, 0x3e, 
 0x79, 0x76, 0x5c, 0xbe, 0x76, 0x40, 0xa1, 0x3e, 0x67, 0xb2, 0xdd, 0xbe, 
 0x19, 0x79, 0xf4, 0xbd, 0x0b, 0xed, 0x4d, 0xbe, 0x50, 0xbd, 0x8d, 0xbd, 
 0x16, 0x3d, 0x0c, 0xbf, 0xa6, 0x25, 0xf4, 0xbe, 0xc1, 0xed, 0x6d, 0xbf, 
 0x53, 0x33, 0x78, 0xbd, 0xd8, 0x2e, 0xc3, 0xbe, 0x43, 0x33, 0xef, 0xbd, 
 0xc3, 0xe5, 0xb7, 0x3e, 0x87, 0x4e, 0xe7, 0xbe, 0x41, 0x42, 0x64, 0x3e, 
 0x3e, 0xf2, 0x19, 0x3e, 0x72, 0xd8, 0x2d, 0xbe, 0xcc, 0x4d, 0xa4, 0xbe, 
 0x1a, 0x03, 0x9f, 0xbb, 0x08, 0x03, 0x52, 0x3e, 0xf5, 0x26, 0x4e, 0xbf, 
 0xc6, 0x92, 0x98, 0xbe, 0xac, 0x50, 0xf4, 0xbe, 0x2d, 0x35, 0xe0, 0xbe, 
 0x50, 0xb0, 0xf0, 0x3d, 0x3c, 0xf7, 0x85, 0xbf, 0x16, 0x3e, 0x28, 0xbf, 
 0xfd, 0x35, 0xb3, 0xbd, 0xfa, 0x80, 0xcc, 0xbe, 0x7e, 0x60, 0x3a, 0x3d, 
 0x59, 0x6f, 0xb0, 0x3e, 0xd8, 0x94, 0xd8, 0x3e, 0x38, 0x1b, 0xdd, 0x3e, 
 0xce, 0x71, 0xec, 0x3e, 0xc1, 0x36, 0x44, 0xbe, 0x9a, 0x70, 0x28, 0xbe, 
 0x6e, 0x34, 0xe1, 0x3e, 0x8f, 0xd5, 0x47, 0xbe, 0x91, 0xfb, 0x09, 0xbf, 
 0xfa, 0x73, 0x11, 0xbe, 0xea, 0x24, 0x02, 0xbf, 0x3a, 0x14, 0xf5, 0xbe, 
 0xb5, 0x19, 0xa3, 0xbe, 0x13, 0xf0, 0x2d, 0xbe, 0xba, 0x68, 0xb6, 0xbe, 
 0xea, 0x26, 0xaf, 0xbe, 0xe7, 0xb1, 0x50, 0xbe, 0x1d, 0x16, 0x95, 0xbe, 
 0x95, 0xb6, 0x81, 0xbe, 0x25, 0x31, 0x55, 0xbf, 0x15, 0x01, 0xb3, 0x3e, 
 0xb8, 0xfa, 0x85, 0x3f, 0x32, 0x38, 0x5b, 0xbe, 0xd7, 0x84, 0x67, 0xbd, 
 0x5a, 0x7f, 0xb6, 0x3d, 0x31, 0x3e, 0xb1, 0xbe, 0x92, 0x31, 0x49, 0xbf, 
 0x70, 0x8f, 0x94, 0xbe, 0x4e, 0x2a, 0x73, 0xbe, 0x9d, 0x1e, 0x82, 0xbe, 
 0x78, 0x18, 0x80, 0xbf, 0xad, 0x89, 0x78, 0xbe, 0x0d, 0xa2, 0x73, 0x3e, 
 0xec, 0x5f, 0xd7, 0xbc, 0x4d, 0x5e, 0x6b, 0xbd, 0xee, 0xe9, 0xdd, 0xbe, 
 0xfe, 0x11, 0x89, 0x3e, 0x57, 0x5a, 0x44, 0x3e, 0xb9, 0x3b, 0x00, 0xbf, 
 0xde, 0xd4, 0x17, 0xbf, 0x8b, 0x16, 0x41, 0xbe, 0xaa, 0x29, 0x9b, 0xbe, 
 0x03, 0x79, 0x4c, 0xbf, 0xdf, 0xc7, 0x3a, 0xbe, 0x73, 0x84, 0x48, 0x3e, 
 0xe7, 0x1e, 0xc4, 0x3e, 0xad, 0x97, 0xbf, 0xbd, 0xb4, 0x19, 0x57, 0xbe, 
 0xfe, 0xe6, 0x8c, 0x3d, 0xc8, 0x29, 0x0a, 0xbe, 0x83, 0x65, 0xb6, 0x3d, 
 0x5d, 0xf8, 0xfd, 0x3e, 0x88, 0x0a, 0x26, 0x3f, 0x51, 0x8d, 0xe2, 0x3e, 
 0x3f, 0x70, 0x9e, 0x3e, 0x7d, 0x24, 0x49, 0x3f, 0x5e, 0xc5, 0xbf, 0x3e, 
 0x69, 0x6b, 0x53, 0xbe, 0xda, 0xfe, 0xff, 0xff, 0x04, 0x00, 0x00, 0x00, 
 0x40, 0x00, 0x00, 0x00, 0x3c, 0x42, 0xa3, 0x3d, 0x88, 0xc6, 0x0b, 0x3f, 
 0x9e, 0xaa, 0xea, 0xbd, 0x53, 0x2a, 0x79, 0x3e, 0xc6, 0xbd, 0x95, 0x3e, 
 0x1b, 0x72, 0xa6, 0x3d, 0x8c, 0x87, 0x2d, 0x3e, 0xc6, 0x61, 0x36, 0xbe, 
 0x30, 0xe8, 0x07, 0x3c, 0xcd, 0x8d, 0x1b, 0x3f, 0xdc, 0x69, 0x20, 0x3f, 
 0x59, 0x06, 0x2b, 0xbe, 0x83, 0xf7, 0xd9, 0x3e, 0x9f, 0x4e, 0x23, 0x3f, 
 0x47, 0x19, 0xf2, 0x3d, 0x16, 0x8f, 0xab, 0x3e, 0x26, 0xff, 0xff, 0xff, 
 0x04, 0x00, 0x00, 0x00, 0x0c, 0x00, 0x00, 0x00, 0xe4, 0x2f, 0x28, 0x3d, 
 0xcf, 0xe2, 0x20, 0x3e, 0x6b, 0x05, 0x59, 0xbe, 0x3e, 0xff, 0xff, 0xff, 
 0x04, 0x00, 0x00, 0x00, 0x20, 0x00, 0x00, 0x00, 0x27, 0x19, 0x26, 0x3e, 
 0x77, 0xe5, 0x62, 0xbd, 0xb0, 0x40, 0x0c, 0x3e, 0xa7, 0x99, 0x6e, 0x3e, 
 0x71, 0xc1, 0x00, 0x3f, 0xbd, 0x59, 0xf7, 0x3d, 0x89, 0x14, 0x15, 0x3f, 
 0xfa, 0xf5, 0x70, 0x3e, 0x5c, 0xfa, 0xff, 0xff, 0x60, 0xfa, 0xff, 0xff, 
 0x0f, 0x00, 0x00, 0x00, 0x4d, 0x4c, 0x49, 0x52, 0x20, 0x43, 0x6f, 0x6e, 
 0x76, 0x65, 0x72, 0x74, 0x65, 0x64, 0x2e, 0x00, 0x01, 0x00, 0x00, 0x00, 
 0x14, 0x00, 0x00, 0x00, 0x00, 0x00, 0x0e, 0x00, 0x18, 0x00, 0x14, 0x00, 
 0x10, 0x00, 0x0c, 0x00, 0x08, 0x00, 0x04, 0x00, 0x0e, 0x00, 0x00, 0x00, 
 0x14, 0x00, 0x00, 0x00, 0x1c, 0x00, 0x00, 0x00, 0x24, 0x01, 0x00, 0x00, 
 0x28, 0x01, 0x00, 0x00, 0x2c, 0x01, 0x00, 0x00, 0x04, 0x00, 0x00, 0x00, 
 0x6d, 0x61, 0x69, 0x6e, 0x00, 0x00, 0x00, 0x00, 0x04, 0x00, 0x00, 0x00, 
 0xcc, 0x00, 0x00, 0x00, 0x84, 0x00, 0x00, 0x00, 0x50, 0x00, 0x00, 0x00, 
 0x14, 0x00, 0x00, 0x00, 0x00, 0x00, 0x0e, 0x00, 0x1a, 0x00, 0x14, 0x00, 
 0x10, 0x00, 0x0c, 0x00, 0x0b, 0x00, 0x04, 0x00, 0x0e, 0x00, 0x00, 0x00, 
 0x1c, 0x00, 0x00, 0x00, 0x00, 0x00, 0x00, 0x09, 0x1c, 0x00, 0x00, 0x00, 
 0x20, 0x00, 0x00, 0x00, 0x01, 0x00, 0x00, 0x00, 0x00, 0x00, 0x06, 0x00, 
 0x08, 0x00, 0x04, 0x00, 0x06, 0x00, 0x00, 0x00, 0x00, 0x00, 0x80, 0x3f, 
 0x01, 0x00, 0x00, 0x00, 0x0a, 0x00, 0x00, 0x00, 0x01, 0x00, 0x00, 0x00, 
 0x09, 0x00, 0x00, 0x00, 0x9a, 0xff, 0xff, 0xff, 0x10, 0x00, 0x00, 0x00, 
 0x00, 0x00, 0x00, 0x08, 0x0c, 0x00, 0x00, 0x00, 0x10, 0x00, 0x00, 0x00, 
 0x24, 0xfb, 0xff, 0xff, 0x01, 0x00, 0x00, 0x00, 0x09, 0x00, 0x00, 0x00, 
 0x03, 0x00, 0x00, 0x00, 0x08, 0x00, 0x00, 0x00, 0x06, 0x00, 0x00, 0x00, 
 0x02, 0x00, 0x00, 0x00, 0xca, 0xff, 0xff, 0xff, 0x10, 0x00, 0x00, 0x00, 
 0x00, 0x00, 0x00, 0x08, 0x10, 0x00, 0x00, 0x00, 0x14, 0x00, 0x00, 0x00, 
 0xba, 0xff, 0xff, 0xff, 0x00, 0x00, 0x00, 0x01, 0x01, 0x00, 0x00, 0x00, 
 0x08, 0x00, 0x00, 0x00, 0x03, 0x00, 0x00, 0x00, 0x07, 0x00, 0x00, 0x00, 
 0x05, 0x00, 0x00, 0x00, 0x01, 0x00, 0x00, 0x00, 0x00, 0x00, 0x0e, 0x00, 
 0x16, 0x00, 0x00, 0x00, 0x10, 0x00, 0x0c, 0x00, 0x0b, 0x00, 0x04, 0x00, 
 0x0e, 0x00, 0x00, 0x00, 0x18, 0x00, 0x00, 0x00, 0x00, 0x00, 0x00, 0x08, 
 0x18, 0x00, 0x00, 0x00, 0x1c, 0x00, 0x00, 0x00, 0x00, 0x00, 0x06, 0x00, 
 0x08, 0x00, 0x07, 0x00, 0x06, 0x00, 0x00, 0x00, 0x00, 0x00, 0x00, 0x01, 
 0x01, 0x00, 0x00, 0x00, 0x07, 0x00, 0x00, 0x00, 0x03, 0x00, 0x00, 0x00, 
 0x00, 0x00, 0x00, 0x00, 0x04, 0x00, 0x00, 0x00, 0x03, 0x00, 0x00, 0x00, 
 0x01, 0x00, 0x00, 0x00, 0x0a, 0x00, 0x00, 0x00, 0x01, 0x00, 0x00, 0x00, 
 0x00, 0x00, 0x00, 0x00, 0x0b, 0x00, 0x00, 0x00, 0x04, 0x04, 0x00, 0x00, 
 0x94, 0x03, 0x00, 0x00, 0x24, 0x03, 0x00, 0x00, 0xd0, 0x02, 0x00, 0x00, 
 0x88, 0x02, 0x00, 0x00, 0x3c, 0x02, 0x00, 0x00, 0xf0, 0x01, 0x00, 0x00, 
 0x68, 0x01, 0x00, 0x00, 0xd8, 0x00, 0x00, 0x00, 0x60, 0x00, 0x00, 0x00, 
 0x04, 0x00, 0x00, 0x00, 0x3e, 0xfc, 0xff, 0xff, 0x00, 0x00, 0x00, 0x01, 
 0x14, 0x00, 0x00, 0x00, 0x1c, 0x00, 0x00, 0x00, 0x1c, 0x00, 0x00, 0x00, 
 0x0b, 0x00, 0x00, 0x00, 0x34, 0x00, 0x00, 0x00, 0x02, 0x00, 0x00, 0x00, 
 0xff, 0xff, 0xff, 0xff, 0x03, 0x00, 0x00, 0x00, 0x28, 0xfc, 0xff, 0xff, 
 0x19, 0x00, 0x00, 0x00, 0x53, 0x74, 0x61, 0x74, 0x65, 0x66, 0x75, 0x6c, 
 0x50, 0x61, 0x72, 0x74, 0x69, 0x74, 0x69, 0x6f, 0x6e, 0x65, 0x64, 0x43, 
 0x61, 0x6c, 0x6c, 0x3a, 0x30, 0x00, 0x00, 0x00, 0x02, 0x00, 0x00, 0x00, 
 0x01, 0x00, 0x00, 0x00, 0x03, 0x00, 0x00, 0x00, 0x96, 0xfc, 0xff, 0xff, 
 0x00, 0x00, 0x00, 0x01, 0x14, 0x00, 0x00, 0x00, 0x1c, 0x00, 0x00, 0x00, 
 0x1c, 0x00, 0x00, 0x00, 0x0a, 0x00, 0x00, 0x00, 0x50, 0x00, 0x00, 0x00, 
 0x02, 0x00, 0x00, 0x00, 0xff, 0xff, 0xff, 0xff, 0x03, 0x00, 0x00, 0x00, 
 0x80, 0xfc, 0xff, 0xff, 0x34, 0x00, 0x00, 0x00, 0x73, 0x65, 0x71, 0x75, 
 0x65, 0x6e, 0x74, 0x69, 0x61, 0x6c, 0x2f, 0x64, 0x65, 0x6e, 0x73, 0x65, 
 0x5f, 0x32, 0x2f, 0x4d, 0x61, 0x74, 0x4d, 0x75, 0x6c, 0x3b, 0x73, 0x65, 
 0x71, 0x75, 0x65, 0x6e, 0x74, 0x69, 0x61, 0x6c, 0x2f, 0x64, 0x65, 0x6e, 
 0x73, 0x65, 0x5f, 0x32, 0x2f, 0x42, 0x69, 0x61, 0x73, 0x41, 0x64, 0x64, 
 0x00, 0x00, 0x00, 0x00, 0x02, 0x00, 0x00, 0x00, 0x01, 0x00, 0x00, 0x00, 
 0x03, 0x00, 0x00, 0x00, 0x0a, 0xfd, 0xff, 0xff, 0x00, 0x00, 0x00, 0x01, 
 0x14, 0x00, 0x00, 0x00, 0x1c, 0x00, 0x00, 0x00, 0x1c, 0x00, 0x00, 0x00, 
 0x09, 0x00, 0x00, 0x00, 0x68, 0x00, 0x00, 0x00, 0x02, 0x00, 0x00, 0x00, 
 0xff, 0xff, 0xff, 0xff, 0x08, 0x00, 0x00, 0x00, 0xf4, 0xfc, 0xff, 0xff, 
 0x4c, 0x00, 0x00, 0x00, 0x73, 0x65, 0x71, 0x75, 0x65, 0x6e, 0x74, 0x69, 
 0x61, 0x6c, 0x2f, 0x64, 0x65, 0x6e, 0x73, 0x65, 0x5f, 0x31, 0x2f, 0x4d, 
 0x61, 0x74, 0x4d, 0x75, 0x6c, 0x3b, 0x73, 0x65, 0x71, 0x75, 0x65, 0x6e, 
 0x74, 0x69, 0x61, 0x6c, 0x2f, 0x64, 0x65, 0x6e, 0x73, 0x65, 0x5f, 0x31, 
 0x2f, 0x52, 0x65, 0x6c, 0x75, 0x3b, 0x73, 0x65, 0x71, 0x75, 0x65, 0x6e, 
 0x74, 0x69, 0x61, 0x6c, 0x2f, 0x64, 0x65, 0x6e, 0x73, 0x65, 0x5f, 0x31, 
 0x2f, 0x42, 0x69, 0x61, 0x73, 0x41, 0x64, 0x64, 0x00, 0x00, 0x00, 0x00, 
 0x02, 0x00, 0x00, 0x00, 0x01, 0x00, 0x00, 0x00, 0x08, 0x00, 0x00, 0x00, 
 0x96, 0xfd, 0xff, 0xff, 0x00, 0x00, 0x00, 0x01, 0x14, 0x00, 0x00, 0x00, 
 0x1c, 0x00, 0x00, 0x00, 0x1c, 0x00, 0x00, 0x00, 0x08, 0x00, 0x00, 0x00, 
 0x60, 0x00, 0x00, 0x00, 0x02, 0x00, 0x00, 0x00, 0xff, 0xff, 0xff, 0xff, 
 0x10, 0x00, 0x00, 0x00, 0x80, 0xfd, 0xff, 0xff, 0x46, 0x00, 0x00, 0x00, 
 0x73, 0x65, 0x71, 0x75, 0x65, 0x6e, 0x74, 0x69, 0x61, 0x6c, 0x2f, 0x64, 
 0x65, 0x6e, 0x73, 0x65, 0x2f, 0x4d, 0x61, 0x74, 0x4d, 0x75, 0x6c, 0x3b, 
 0x73, 0x65, 0x71, 0x75, 0x65, 0x6e, 0x74, 0x69, 0x61, 0x6c, 0x2f, 0x64, 
 0x65, 0x6e, 0x73, 0x65, 0x2f, 0x52, 0x65, 0x6c, 0x75, 0x3b, 0x73, 0x65, 
 0x71, 0x75, 0x65, 0x6e, 0x74, 0x69, 0x61, 0x6c, 0x2f, 0x64, 0x65, 0x6e, 
 0x73, 0x65, 0x2f, 0x42, 0x69, 0x61, 0x73, 0x41, 0x64, 0x64, 0x00, 0x00, 
 0x02, 0x00, 0x00, 0x00, 0x01, 0x00, 0x00, 0x00, 0x10, 0x00, 0x00, 0x00, 
 0x86, 0xfe, 0xff, 0xff, 0x00, 0x00, 0x00, 0x01, 0x10, 0x00, 0x00, 0x00, 
 0x10, 0x00, 0x00, 0x00, 0x07, 0x00, 0x00, 0x00, 0x28, 0x00, 0x00, 0x00, 
 0xf4, 0xfd, 0xff, 0xff, 0x19, 0x00, 0x00, 0x00, 0x73, 0x65, 0x71, 0x75, 
 0x65, 0x6e, 0x74, 0x69, 0x61, 0x6c, 0x2f, 0x64, 0x65, 0x6e, 0x73, 0x65, 
 0x5f, 0x32, 0x2f, 0x4d, 0x61, 0x74, 0x4d, 0x75, 0x6c, 0x00, 0x00, 0x00, 
 0x02, 0x00, 0x00, 0x00, 0x03, 0x00, 0x00, 0x00, 0x08, 0x00, 0x00, 0x00, 
 0xce, 0xfe, 0xff, 0xff, 0x00, 0x00, 0x00, 0x01, 0x10, 0x00, 0x00, 0x00, 
 0x10, 0x00, 0x00, 0x00, 0x06, 0x00, 0x00, 0x00, 0x28, 0x00, 0x00, 0x00, 
 0x3c, 0xfe, 0xff, 0xff, 0x19, 0x00, 0x00, 0x00, 0x73, 0x65, 0x71, 0x75, 
 0x65, 0x6e, 0x74, 0x69, 0x61, 0x6c, 0x2f, 0x64, 0x65, 0x6e, 0x73, 0x65, 
 0x5f, 0x31, 0x2f, 0x4d, 0x61, 0x74, 0x4d, 0x75, 0x6c, 0x00, 0x00, 0x00, 
 0x02, 0x00, 0x00, 0x00, 0x08, 0x00, 0x00, 0x00, 0x10, 0x00, 0x00, 0x00, 
 0x16, 0xff, 0xff, 0xff, 0x00, 0x00, 0x00, 0x01, 0x10, 0x00, 0x00, 0x00, 
 0x10, 0x00, 0x00, 0x00, 0x05, 0x00, 0x00, 0x00, 0x24, 0x00, 0x00, 0x00, 
 0x84, 0xfe, 0xff, 0xff, 0x17, 0x00, 0x00, 0x00, 0x73, 0x65, 0x71, 0x75, 
 0x65, 0x6e, 0x74, 0x69, 0x61, 0x6c, 0x2f, 0x64, 0x65, 0x6e, 0x73, 0x65, 
 0x2f, 0x4d, 0x61, 0x74, 0x4d, 0x75, 0x6c, 0x00, 0x02, 0x00, 0x00, 0x00, 
 0x10, 0x00, 0x00, 0x00, 0x0d, 0x00, 0x00, 0x00, 0x5a, 0xff, 0xff, 0xff, 
 0x00, 0x00, 0x00, 0x01, 0x10, 0x00, 0x00, 0x00, 0x10, 0x00, 0x00, 0x00, 
 0x04, 0x00, 0x00, 0x00, 0x34, 0x00, 0x00, 0x00, 0xc8, 0xfe, 0xff, 0xff, 
 0x27, 0x00, 0x00, 0x00, 0x73, 0x65, 0x71, 0x75, 0x65, 0x6e, 0x74, 0x69, 
 0x61, 0x6c, 0x2f, 0x64, 0x65, 0x6e, 0x73, 0x65, 0x2f, 0x42, 0x69, 0x61, 
 0x73, 0x41, 0x64, 0x64, 0x2f, 0x52, 0x65, 0x61, 0x64, 0x56, 0x61, 0x72, 
 0x69, 0x61, 0x62, 0x6c, 0x65, 0x4f, 0x70, 0x00, 0x01, 0x00, 0x00, 0x00, 
 0x10, 0x00, 0x00, 0x00, 0xaa, 0xff, 0xff, 0xff, 0x00, 0x00, 0x00, 0x01, 
 0x10, 0x00, 0x00, 0x00, 0x10, 0x00, 0x00, 0x00, 0x03, 0x00, 0x00, 0x00, 
 0x38, 0x00, 0x00, 0x00, 0x18, 0xff, 0xff, 0xff, 0x29, 0x00, 0x00, 0x00, 
 0x73, 0x65, 0x71, 0x75, 0x65, 0x6e, 0x74, 0x69, 0x61, 0x6c, 0x2f, 0x64, 
 0x65, 0x6e, 0x73, 0x65, 0x5f, 0x32, 0x2f, 0x42, 0x69, 0x61, 0x73, 0x41, 
 0x64, 0x64, 0x2f, 0x52, 0x65, 0x61, 0x64, 0x56, 0x61, 0x72, 0x69, 0x61, 
 0x62, 0x6c, 0x65, 0x4f, 0x70, 0x00, 0x00, 0x00, 0x01, 0x00, 0x00, 0x00, 
 0x03, 0x00, 0x00, 0x00, 0x00, 0x00, 0x16, 0x00, 0x18, 0x00, 0x14, 0x00, 
 0x00, 0x00, 0x10, 0x00, 0x0c, 0x00, 0x08, 0x00, 0x00, 0x00, 0x00, 0x00, 
 0x00, 0x00, 0x07, 0x00, 0x16, 0x00, 0x00, 0x00, 0x00, 0x00, 0x00, 0x01, 
 0x10, 0x00, 0x00, 0x00, 0x10, 0x00, 0x00, 0x00, 0x02, 0x00, 0x00, 0x00, 
 0x38, 0x00, 0x00, 0x00, 0x84, 0xff, 0xff, 0xff, 0x29, 0x00, 0x00, 0x00, 
 0x73, 0x65, 0x71, 0x75, 0x65, 0x6e, 0x74, 0x69, 0x61, 0x6c, 0x2f, 0x64, 
 0x65, 0x6e, 0x73, 0x65, 0x5f, 0x31, 0x2f, 0x42, 0x69, 0x61, 0x73, 0x41, 
 0x64, 0x64, 0x2f, 0x52, 0x65, 0x61, 0x64, 0x56, 0x61, 0x72, 0x69, 0x61, 
 0x62, 0x6c, 0x65, 0x4f, 0x70, 0x00, 0x00, 0x00, 0x01, 0x00, 0x00, 0x00, 
 0x08, 0x00, 0x00, 0x00, 0x00, 0x00, 0x16, 0x00, 0x1c, 0x00, 0x18, 0x00, 
 0x00, 0x00, 0x14, 0x00, 0x10, 0x00, 0x0c, 0x00, 0x00, 0x00, 0x00, 0x00, 
 0x08, 0x00, 0x07, 0x00, 0x16, 0x00, 0x00, 0x00, 0x00, 0x00, 0x00, 0x01, 
 0x14, 0x00, 0x00, 0x00, 0x20, 0x00, 0x00, 0x00, 0x20, 0x00, 0x00, 0x00, 
 0x01, 0x00, 0x00, 0x00, 0x3c, 0x00, 0x00, 0x00, 0x02, 0x00, 0x00, 0x00, 
 0xff, 0xff, 0xff, 0xff, 0x0d, 0x00, 0x00, 0x00, 0x04, 0x00, 0x04, 0x00, 
 0x04, 0x00, 0x00, 0x00, 0x1d, 0x00, 0x00, 0x00, 0x73, 0x65, 0x72, 0x76, 
 0x69, 0x6e, 0x67, 0x5f, 0x64, 0x65, 0x66, 0x61, 0x75, 0x6c, 0x74, 0x5f, 
 0x64, 0x65, 0x6e, 0x73, 0x65, 0x5f, 0x69, 0x6e, 0x70, 0x75, 0x74, 0x3a, 
 0x30, 0x00, 0x00, 0x00, 0x02, 0x00, 0x00, 0x00, 0x01, 0x00, 0x00, 0x00, 
 0x0d, 0x00, 0x00, 0x00, 0x02, 0x00, 0x00, 0x00, 0x20, 0x00, 0x00, 0x00, 
 0x04, 0x00, 0x00, 0x00, 0xf4, 0xff, 0xff, 0xff, 0x19, 0x00, 0x00, 0x00, 
 0x00, 0x00, 0x00, 0x19, 0x0c, 0x00, 0x0c, 0x00, 0x0b, 0x00, 0x00, 0x00, 
 0x00, 0x00, 0x04, 0x00, 0x0c, 0x00, 0x00, 0x00, 0x09, 0x00, 0x00, 0x00, 
 0x00, 0x00, 0x00, 0x09, 
};
const size_t model_data_len = sizeof(model_data);

#endif // MODEL_DATA_H
