#ifndef MODEL_DATA_H
#define MODEL_DATA_H

#include <stddef.h>

const unsigned char model_data[] = {

 0x20, 0x00, 0x00, 0x00, 0x54, 0x46, 0x4c, 0x33, 0x00, 0x00, 0x00, 0x00, 
 0x14, 0x00, 0x20, 0x00, 0x1c, 0x00, 0x18, 0x00, 0x14, 0x00, 0x10, 0x00, 
 0x0c, 0x00, 0x00, 0x00, 0x08, 0x00, 0x04, 0x00, 0x14, 0x00, 0x00, 0x00, 
 0x1c, 0x00, 0x00, 0x00, 0x90, 0x00, 0x00, 0x00, 0xe8, 0x00, 0x00, 0x00, 
 0xd4, 0x03, 0x00, 0x00, 0xe4, 0x03, 0x00, 0x00, 0x20, 0x0b, 0x00, 0x00, 
 0x03, 0x00, 0x00, 0x00, 0x01, 0x00, 0x00, 0x00, 0x10, 0x00, 0x00, 0x00, 
 0x00, 0x00, 0x0a, 0x00, 0x10, 0x00, 0x0c, 0x00, 0x08, 0x00, 0x04, 0x00, 
 0x0a, 0x00, 0x00, 0x00, 0x0c, 0x00, 0x00, 0x00, 0x1c, 0x00, 0x00, 0x00, 
 0x38, 0x00, 0x00, 0x00, 0x0f, 0x00, 0x00, 0x00, 0x73, 0x65, 0x72, 0x76, 
 0x69, 0x6e, 0x67, 0x5f, 0x64, 0x65, 0x66, 0x61, 0x75, 0x6c, 0x74, 0x00, 
 0x01, 0x00, 0x00, 0x00, 0x04, 0x00, 0x00, 0x00, 0x98, 0xff, 0xff, 0xff, 
 0x0a, 0x00, 0x00, 0x00, 0x04, 0x00, 0x00, 0x00, 0x07, 0x00, 0x00, 0x00, 
 0x64, 0x65, 0x6e, 0x73, 0x65, 0x5f, 0x32, 0x00, 0x01, 0x00, 0x00, 0x00, 
 0x04, 0x00, 0x00, 0x00, 0x0e, 0xfc, 0xff, 0xff, 0x04, 0x00, 0x00, 0x00, 
 0x0b, 0x00, 0x00, 0x00, 0x64, 0x65, 0x6e, 0x73, 0x65, 0x5f, 0x69, 0x6e, 
 0x70, 0x75, 0x74, 0x00, 0x02, 0x00, 0x00, 0x00, 0x34, 0x00, 0x00, 0x00, 
 0x04, 0x00, 0x00, 0x00, 0xdc, 0xff, 0xff, 0xff, 0x0d, 0x00, 0x00, 0x00, 
 0x04, 0x00, 0x00, 0x00, 0x13, 0x00, 0x00, 0x00, 0x43, 0x4f, 0x4e, 0x56, 
 0x45, 0x52, 0x53, 0x49, 0x4f, 0x4e, 0x5f, 0x4d, 0x45, 0x54, 0x41, 0x44, 
 0x41, 0x54, 0x41, 0x00, 0x08, 0x00, 0x0c, 0x00, 0x08, 0x00, 0x04, 0x00, 
 0x08, 0x00, 0x00, 0x00, 0x0c, 0x00, 0x00, 0x00, 0x04, 0x00, 0x00, 0x00, 
 0x13, 0x00, 0x00, 0x00, 0x6d, 0x69, 0x6e, 0x5f, 0x72, 0x75, 0x6e, 0x74, 
 0x69, 0x6d, 0x65, 0x5f, 0x76, 0x65, 0x72, 0x73, 0x69, 0x6f, 0x6e, 0x00, 
 0x0e, 0x00, 0x00, 0x00, 0xe8, 0x02, 0x00, 0x00, 0xe0, 0x02, 0x00, 0x00, 
 0xc4, 0x02, 0x00, 0x00, 0x9c, 0x02, 0x00, 0x00, 0x6c, 0x02, 0x00, 0x00, 
 0xdc, 0x01, 0x00, 0x00, 0x8c, 0x01, 0x00, 0x00, 0xac, 0x00, 0x00, 0x00, 
 0xa4, 0x00, 0x00, 0x00, 0x9c, 0x00, 0x00, 0x00, 0x94, 0x00, 0x00, 0x00, 
 0x8c, 0x00, 0x00, 0x00, 0x6c, 0x00, 0x00, 0x00, 0x04, 0x00, 0x00, 0x00, 
 0xbe, 0xfc, 0xff, 0xff, 0x04, 0x00, 0x00, 0x00, 0x58, 0x00, 0x00, 0x00, 
 0x0c, 0x00, 0x00, 0x00, 0x08, 0x00, 0x0e, 0x00, 0x08, 0x00, 0x04, 0x00, 
 0x08, 0x00, 0x00, 0x00, 0x10, 0x00, 0x00, 0x00, 0x28, 0x00, 0x00, 0x00, 
 0x00, 0x00, 0x06, 0x00, 0x08, 0x00, 0x04, 0x00, 0x06, 0x00, 0x00, 0x00, 
 0x04, 0x00, 0x00, 0x00, 0x01, 0x00, 0x00, 0x00, 0xeb, 0x03, 0x00, 0x00, 
 0x00, 0x00, 0x0a, 0x00, 0x10, 0x00, 0x0c, 0x00, 0x08, 0x00, 0x04, 0x00, 
 0x0a, 0x00, 0x00, 0x00, 0x02, 0x00, 0x00, 0x00, 0x02, 0x00, 0x00, 0x00, 
 0x04, 0x00, 0x00, 0x00, 0x06, 0x00, 0x00, 0x00, 0x32, 0x2e, 0x31, 0x33, 
 0x2e, 0x30, 0x00, 0x00, 0x22, 0xfd, 0xff, 0xff, 0x04, 0x00, 0x00, 0x00, 
 0x10, 0x00, 0x00, 0x00, 0x31, 0x2e, 0x31, 0x34, 0x2e, 0x30, 0x00, 0x00, 
 0x00, 0x00, 0x00, 0x00, 0x00, 0x00, 0x00, 0x00, 0x0c, 0xfd, 0xff, 0xff, 
 0x10, 0xfd, 0xff, 0xff, 0x14, 0xfd, 0xff, 0xff, 0x18, 0xfd, 0xff, 0xff, 
 0x4e, 0xfd, 0xff, 0xff, 0x04, 0x00, 0x00, 0x00, 0xd0, 0x00, 0x00, 0x00, 
 0x10, 0xdb, 0xc4, 0x65, 0x68, 0x6f, 0x3a, 0x6a, 0x42, 0x3b, 0x49, 0x05, 
 0x33, 0x1f, 0xf1, 0xad, 0xf6, 0xe2, 0xd9, 0xbb, 0x04, 0xfb, 0xf3, 0xd6, 
 0xe9, 0x27, 0xa4, 0x4b, 0x55, 0x09, 0xdd, 0x16, 0x1f, 0x06, 0xde, 0x05, 
 0x06, 0xe1, 0xc7, 0xf0, 0x0e, 0x3c, 0xfc, 0x0a, 0xe6, 0xee, 0xd0, 0xda, 
 0xda, 0xd8, 0x15, 0x9e, 0xd3, 0xc7, 0xbe, 0xf8, 0xff, 0xd4, 0x19, 0xed, 
 0x08, 0x01, 0x16, 0xc4, 0xf3, 0x00, 0xf7, 0xcf, 0xff, 0xd6, 0xd0, 0x16, 
 0x37, 0x36, 0x20, 0x2d, 0x0e, 0xee, 0x40, 0x09, 0xf9, 0x28, 0xc5, 0xff, 
 0xf1, 0xde, 0xe5, 0xe7, 0x0d, 0xf2, 0x29, 0x93, 0xfd, 0x67, 0xd5, 0x07, 
 0xf9, 0xdb, 0x06, 0xe2, 0xdc, 0xe1, 0xa8, 0xb8, 0x3d, 0x02, 0xb6, 0xf6, 
 0xc9, 0xd2, 0x3f, 0x29, 0x2a, 0x21, 0x50, 0x13, 0xeb, 0x13, 0x03, 0xfa, 
 0xc3, 0xdf, 0xf8, 0x04, 0xb4, 0xb6, 0xa9, 0xb4, 0xe2, 0x0b, 0xe4, 0xff, 
 0x30, 0x07, 0xef, 0xdc, 0xeb, 0xca, 0xf3, 0xf7, 0xe2, 0xa1, 0xe8, 0xb7, 
 0x2a, 0x0a, 0x19, 0x03, 0xe6, 0x02, 0xcd, 0x11, 0xf0, 0xea, 0x0e, 0xf9, 
 0x99, 0x36, 0x72, 0x00, 0xfa, 0x05, 0xee, 0xee, 0x15, 0xec, 0x23, 0x81, 
 0xbb, 0x07, 0xd3, 0xb2, 0x3b, 0xff, 0x49, 0x0f, 0x0c, 0x2d, 0x39, 0x3a, 
 0x08, 0x2a, 0x21, 0x03, 0xcd, 0x4d, 0x39, 0x31, 0xea, 0x31, 0x39, 0x3f, 
 0x35, 0x38, 0x2a, 0x1d, 0xe8, 0xcf, 0x4d, 0x22, 0x2e, 0x15, 0x14, 0x1d, 
 0x0e, 0x2b, 0x2a, 0x27, 0x2a, 0xfe, 0xff, 0xff, 0x04, 0x00, 0x00, 0x00, 
 0x40, 0x00, 0x00, 0x00, 0x49, 0xfc, 0xff, 0xff, 0x55, 0x02, 0x00, 0x00, 
 0x25, 0x05, 0x00, 0x00, 0x5d, 0x08, 0x00, 0x00, 0x10, 0xfe, 0xff, 0xff, 
 0x3d, 0xff, 0xff, 0xff, 0xee, 0xfd, 0xff, 0xff, 0xd2, 0x0a, 0x00, 0x00, 
 0xa3, 0xfd, 0xff, 0xff, 0x82, 0x05, 0x00, 0x00, 0x5f, 0x0e, 0x00, 0x00, 
 0xd9, 0x04, 0x00, 0x00, 0xf4, 0x0b, 0x00, 0x00, 0xcf, 0x03, 0x00, 0x00, 
 0xb6, 0xff, 0xff, 0xff, 0x02, 0xfd, 0xff, 0xff, 0x76, 0xfe, 0xff, 0xff, 
 0x04, 0x00, 0x00, 0x00, 0x80, 0x00, 0x00, 0x00, 0xe9, 0x13, 0xe1, 0xfc, 
 0xf2, 0x36, 0x17, 0xcc, 0x38, 0xc8, 0xce, 0xe8, 0xe6, 0x07, 0x23, 0x0a, 
 0x2f, 0x11, 0x03, 0xf1, 0xda, 0xe4, 0x1c, 0xe8, 0xe9, 0xe7, 0xa4, 0xef, 
 0x19, 0x30, 0x3f, 0x1b, 0x40, 0x0f, 0x00, 0xee, 0x0c, 0x17, 0xe2, 0xc7, 
 0x2e, 0xef, 0xc2, 0x0c, 0x07, 0x2e, 0x45, 0x14, 0x0b, 0x10, 0x39, 0x1d, 
 0xfd, 0x19, 0xea, 0x40, 0xf3, 0x1f, 0x56, 0x28, 0x3a, 0x1f, 0xdd, 0xcb, 
 0x12, 0xe2, 0xe8, 0x0c, 0xde, 0x0a, 0xf6, 0xe3, 0xf8, 0x09, 0xf4, 0xfc, 
 0xeb, 0xd9, 0x10, 0xf0, 0x9a, 0x0a, 0x0c, 0x45, 0xf2, 0xe1, 0x23, 0x29, 
 0xec, 0x1c, 0x42, 0x11, 0x1c, 0xc1, 0xbd, 0xa2, 0xe1, 0x25, 0x31, 0x22, 
 0xf0, 0xeb, 0x03, 0x4e, 0xf5, 0x38, 0x74, 0x22, 0x42, 0xda, 0xfa, 0xc8, 
 0x81, 0xd9, 0x07, 0x37, 0xe2, 0x03, 0xfd, 0x32, 0xe0, 0x32, 0x48, 0x04, 
 0x1b, 0xde, 0xc0, 0xf1, 0x02, 0xff, 0xff, 0xff, 0x04, 0x00, 0x00, 0x00, 
 0x20, 0x00, 0x00, 0x00, 0x4e, 0xff, 0xff, 0xff, 0x17, 0x00, 0x00, 0x00, 
 0x90, 0xfe, 0xff, 0xff, 0x2b, 0x06, 0x00, 0x00, 0xd6, 0xff, 0xff, 0xff, 
 0xfa, 0x00, 0x00, 0x00, 0x4b, 0x07, 0x00, 0x00, 0x85, 0x01, 0x00, 0x00, 
 0x2e, 0xff, 0xff, 0xff, 0x04, 0x00, 0x00, 0x00, 0x18, 0x00, 0x00, 0x00, 
 0xd7, 0x82, 0xd0, 0xe4, 0xfe, 0x7f, 0x15, 0x4d, 0xe2, 0xe6, 0xf1, 0x0d, 
 0x02, 0xab, 0x21, 0x96, 0x1d, 0x26, 0x07, 0xd2, 0xeb, 0xf3, 0x95, 0xde, 
 0x52, 0xff, 0xff, 0xff, 0x04, 0x00, 0x00, 0x00, 0x0c, 0x00, 0x00, 0x00, 
 0x40, 0xff, 0xff, 0xff, 0x3b, 0x01, 0x00, 0x00, 0x48, 0xff, 0xff, 0xff, 
 0x38, 0xff, 0xff, 0xff, 0x3c, 0xff, 0xff, 0xff, 0x0f, 0x00, 0x00, 0x00, 
 0x4d, 0x4c, 0x49, 0x52, 0x20, 0x43, 0x6f, 0x6e, 0x76, 0x65, 0x72, 0x74, 
 0x65, 0x64, 0x2e, 0x00, 0x01, 0x00, 0x00, 0x00, 0x14, 0x00, 0x00, 0x00, 
 0x00, 0x00, 0x0e, 0x00, 0x18, 0x00, 0x14, 0x00, 0x10, 0x00, 0x0c, 0x00, 
 0x08, 0x00, 0x04, 0x00, 0x0e, 0x00, 0x00, 0x00, 0x14, 0x00, 0x00, 0x00, 
 0x1c, 0x00, 0x00, 0x00, 0x28, 0x01, 0x00, 0x00, 0x2c, 0x01, 0x00, 0x00, 
 0x30, 0x01, 0x00, 0x00, 0x04, 0x00, 0x00, 0x00, 0x6d, 0x61, 0x69, 0x6e, 
 0x00, 0x00, 0x00, 0x00, 0x04, 0x00, 0x00, 0x00, 0xd0, 0x00, 0x00, 0x00, 
 0x88, 0x00, 0x00, 0x00, 0x50, 0x00, 0x00, 0x00, 0x14, 0x00, 0x00, 0x00, 
 0x00, 0x00, 0x0e, 0x00, 0x1a, 0x00, 0x14, 0x00, 0x10, 0x00, 0x0c, 0x00, 
 0x0b, 0x00, 0x04, 0x00, 0x0e, 0x00, 0x00, 0x00, 0x1c, 0x00, 0x00, 0x00, 
 0x00, 0x00, 0x00, 0x09, 0x1c, 0x00, 0x00, 0x00, 0x20, 0x00, 0x00, 0x00, 
 0x01, 0x00, 0x00, 0x00, 0x00, 0x00, 0x06, 0x00, 0x08, 0x00, 0x04, 0x00, 
 0x06, 0x00, 0x00, 0x00, 0x00, 0x00, 0x80, 0x3f, 0x01, 0x00, 0x00, 0x00, 
 0x0a, 0x00, 0x00, 0x00, 0x01, 0x00, 0x00, 0x00, 0x09, 0x00, 0x00, 0x00, 
 0x96, 0xff, 0xff, 0xff, 0x14, 0x00, 0x00, 0x00, 0x00, 0x00, 0x00, 0x08, 
 0x10, 0x00, 0x00, 0x00, 0x14, 0x00, 0x00, 0x00, 0x04, 0x00, 0x04, 0x00, 
 0x04, 0x00, 0x00, 0x00, 0x01, 0x00, 0x00, 0x00, 0x09, 0x00, 0x00, 0x00, 
 0x03, 0x00, 0x00, 0x00, 0x08, 0x00, 0x00, 0x00, 0x02, 0x00, 0x00, 0x00, 
 0x01, 0x00, 0x00, 0x00, 0xca, 0xff, 0xff, 0xff, 0x10, 0x00, 0x00, 0x00, 
 0x00, 0x00, 0x00, 0x08, 0x10, 0x00, 0x00, 0x00, 0x14, 0x00, 0x00, 0x00, 
 0xba, 0xff, 0xff, 0xff, 0x00, 0x00, 0x00, 0x01, 0x01, 0x00, 0x00, 0x00, 
 0x08, 0x00, 0x00, 0x00, 0x03, 0x00, 0x00, 0x00, 0x07, 0x00, 0x00, 0x00, 
 0x04, 0x00, 0x00, 0x00, 0x03, 0x00, 0x00, 0x00, 0x00, 0x00, 0x0e, 0x00, 
 0x16, 0x00, 0x00, 0x00, 0x10, 0x00, 0x0c, 0x00, 0x0b, 0x00, 0x04, 0x00, 
 0x0e, 0x00, 0x00, 0x00, 0x18, 0x00, 0x00, 0x00, 0x00, 0x00, 0x00, 0x08, 
 0x18, 0x00, 0x00, 0x00, 0x1c, 0x00, 0x00, 0x00, 0x00, 0x00, 0x06, 0x00, 
 0x08, 0x00, 0x07, 0x00, 0x06, 0x00, 0x00, 0x00, 0x00, 0x00, 0x00, 0x01, 
 0x01, 0x00, 0x00, 0x00, 0x07, 0x00, 0x00, 0x00, 0x03, 0x00, 0x00, 0x00, 
 0x00, 0x00, 0x00, 0x00, 0x06, 0x00, 0x00, 0x00, 0x05, 0x00, 0x00, 0x00, 
 0x01, 0x00, 0x00, 0x00, 0x0a, 0x00, 0x00, 0x00, 0x01, 0x00, 0x00, 0x00, 
 0x00, 0x00, 0x00, 0x00, 0x0b, 0x00, 0x00, 0x00, 0x58, 0x05, 0x00, 0x00, 
 0xc8, 0x04, 0x00, 0x00, 0x44, 0x04, 0x00, 0x00, 0xc8, 0x03, 0x00, 0x00, 
 0x5c, 0x03, 0x00, 0x00, 0xe8, 0x02, 0x00, 0x00, 0x7c, 0x02, 0x00, 0x00, 
 0xd0, 0x01, 0x00, 0x00, 0x1c, 0x01, 0x00, 0x00, 0x80, 0x00, 0x00, 0x00, 
 0x04, 0x00, 0x00, 0x00, 0xea, 0xfa, 0xff, 0xff, 0x00, 0x00, 0x00, 0x01, 
 0x18, 0x00, 0x00, 0x00, 0x20, 0x00, 0x00, 0x00, 0x3c, 0x00, 0x00, 0x00, 
 0x0b, 0x00, 0x00, 0x00, 0x00, 0x00, 0x00, 0x09, 0x50, 0x00, 0x00, 0x00, 
 0x02, 0x00, 0x00, 0x00, 0xff, 0xff, 0xff, 0xff, 0x03, 0x00, 0x00, 0x00, 
 0xd4, 0xfa, 0xff, 0xff, 0x08, 0x00, 0x00, 0x00, 0x10, 0x00, 0x00, 0x00, 
 0x01, 0x00, 0x00, 0x00, 0x80, 0xff, 0xff, 0xff, 0xff, 0xff, 0xff, 0xff, 
 0x01, 0x00, 0x00, 0x00, 0x00, 0x00, 0x80, 0x3b, 0x19, 0x00, 0x00, 0x00, 
 0x53, 0x74, 0x61, 0x74, 0x65, 0x66, 0x75, 0x6c, 0x50, 0x61, 0x72, 0x74, 
 0x69, 0x74, 0x69, 0x6f, 0x6e, 0x65, 0x64, 0x43, 0x61, 0x6c, 0x6c, 0x3a, 
 0x30, 0x00, 0x00, 0x00, 0x02, 0x00, 0x00, 0x00, 0x01, 0x00, 0x00, 0x00, 
 0x03, 0x00, 0x00, 0x00, 0x62, 0xfb, 0xff, 0xff, 0x00, 0x00, 0x00, 0x01, 
 0x18, 0x00, 0x00, 0x00, 0x20, 0x00, 0x00, 0x00, 0x40, 0x00, 0x00, 0x00, 
 0x0a, 0x00, 0x00, 0x00, 0x00, 0x00, 0x00, 0x09, 0x70, 0x00, 0x00, 0x00, 
 0x02, 0x00, 0x00, 0x00, 0xff, 0xff, 0xff, 0xff, 0x03, 0x00, 0x00, 0x00, 
 0x4c, 0xfb, 0xff, 0xff, 0x08, 0x00, 0x00, 0x00, 0x14, 0x00, 0x00, 0x00, 
 0x01, 0x00, 0x00, 0x00, 0x18, 0x00, 0x00, 0x00, 0x00, 0x00, 0x00, 0x00, 
 0x00, 0x00, 0x00, 0x00, 0x01, 0x00, 0x00, 0x00, 0xc0, 0x3b, 0x13, 0x3f, 
 0x34, 0x00, 0x00, 0x00, 0x73, 0x65, 0x71, 0x75, 0x65, 0x6e, 0x74, 0x69, 
 0x61, 0x6c, 0x2f, 0x64, 0x65, 0x6e, 0x73, 0x65, 0x5f, 0x32, 0x2f, 0x4d, 
 0x61, 0x74, 0x4d, 0x75, 0x6c, 0x3b, 0x73, 0x65, 0x71, 0x75, 0x65, 0x6e, 
 0x74, 0x69, 0x61, 0x6c, 0x2f, 0x64, 0x65, 0x6e, 0x73, 0x65, 0x5f, 0x32, 
 0x2f, 0x42, 0x69, 0x61, 0x73, 0x41, 0x64, 0x64, 0x00, 0x00, 0x00, 0x00, 
 0x02, 0x00, 0x00, 0x00, 0x01, 0x00, 0x00, 0x00, 0x03, 0x00, 0x00, 0x00, 
 0xfa, 0xfb, 0xff, 0xff, 0x00, 0x00, 0x00, 0x01, 0x18, 0x00, 0x00, 0x00, 
 0x20, 0x00, 0x00, 0x00, 0x40, 0x00, 0x00, 0x00, 0x09, 0x00, 0x00, 0x00, 
 0x00, 0x00, 0x00, 0x09, 0x88, 0x00, 0x00, 0x00, 0x02, 0x00, 0x00, 0x00, 
 0xff, 0xff, 0xff, 0xff, 0x08, 0x00, 0x00, 0x00, 0xe4, 0xfb, 0xff, 0xff, 
 0x08, 0x00, 0x00, 0x00, 0x14, 0x00, 0x00, 0x00, 0x01, 0x00, 0x00, 0x00, 
 0x80, 0xff, 0xff, 0xff, 0xff, 0xff, 0xff, 0xff, 0x00, 0x00, 0x00, 0x00, 
 0x01, 0x00, 0x00, 0x00, 0x18, 0xbe, 0x94, 0x3d, 0x4c, 0x00, 0x00, 0x00, 
 0x73, 0x65, 0x71, 0x75, 0x65, 0x6e, 0x74, 0x69, 0x61, 0x6c, 0x2f, 0x64, 
 0x65, 0x6e, 0x73, 0x65, 0x5f, 0x31, 0x2f, 0x4d, 0x61, 0x74, 0x4d, 0x75, 
 0x6c, 0x3b, 0x73, 0x65, 0x71, 0x75, 0x65, 0x6e, 0x74, 0x69, 0x61, 0x6c, 
 0x2f, 0x64, 0x65, 0x6e, 0x73, 0x65, 0x5f, 0x31, 0x2f, 0x52, 0x65, 0x6c, 
 0x75, 0x3b, 0x73, 0x65, 0x71, 0x75, 0x65, 0x6e, 0x74, 0x69, 0x61, 0x6c, 
 0x2f, 0x64, 0x65, 0x6e, 0x73, 0x65, 0x5f, 0x31, 0x2f, 0x42, 0x69, 0x61, 
 0x73, 0x41, 0x64, 0x64, 0x00, 0x00, 0x00, 0x00, 0x02, 0x00, 0x00, 0x00, 
 0x01, 0x00, 0x00, 0x00, 0x08, 0x00, 0x00, 0x00, 0xaa, 0xfc, 0xff, 0xff, 
 0x00, 0x00, 0x00, 0x01, 0x18, 0x00, 0x00, 0x00, 0x20, 0x00, 0x00, 0x00, 
 0x40, 0x00, 0x00, 0x00, 0x08, 0x00, 0x00, 0x00, 0x00, 0x00, 0x00, 0x09, 
 0x80, 0x00, 0x00, 0x00, 0x02, 0x00, 0x00, 0x00, 0xff, 0xff, 0xff, 0xff, 
 0x10, 0x00, 0x00, 0x00, 0x94, 0xfc, 0xff, 0xff, 0x08, 0x00, 0x00, 0x00, 
 0x14, 0x00, 0x00, 0x00, 0x01, 0x00, 0x00, 0x00, 0x80, 0xff, 0xff, 0xff, 
 0xff, 0xff, 0xff, 0xff, 0x00, 0x00, 0x00, 0x00, 0x01, 0x00, 0x00, 0x00, 
 0x35, 0x23, 0xe3, 0x3c, 0x46, 0x00, 0x00, 0x00, 0x73, 0x65, 0x71, 0x75, 
 0x65, 0x6e, 0x74, 0x69, 0x61, 0x6c, 0x2f, 0x64, 0x65, 0x6e, 0x73, 0x65, 
 0x2f, 0x4d, 0x61, 0x74, 0x4d, 0x75, 0x6c, 0x3b, 0x73, 0x65, 0x71, 0x75, 
 0x65, 0x6e, 0x74, 0x69, 0x61, 0x6c, 0x2f, 0x64, 0x65, 0x6e, 0x73, 0x65, 
 0x2f, 0x52, 0x65, 0x6c, 0x75, 0x3b, 0x73, 0x65, 0x71, 0x75, 0x65, 0x6e, 
 0x74, 0x69, 0x61, 0x6c, 0x2f, 0x64, 0x65, 0x6e, 0x73, 0x65, 0x2f, 0x42, 
 0x69, 0x61, 0x73, 0x41, 0x64, 0x64, 0x00, 0x00, 0x02, 0x00, 0x00, 0x00, 
 0x01, 0x00, 0x00, 0x00, 0x10, 0x00, 0x00, 0x00, 0xde, 0xfd, 0xff, 0xff, 
 0x00, 0x00, 0x00, 0x01, 0x14, 0x00, 0x00, 0x00, 0x34, 0x00, 0x00, 0x00, 
 0x07, 0x00, 0x00, 0x00, 0x00, 0x00, 0x00, 0x09, 0x44, 0x00, 0x00, 0x00, 
 0x2c, 0xfd, 0xff, 0xff, 0x08, 0x00, 0x00, 0x00, 0x14, 0x00, 0x00, 0x00, 
 0x01, 0x00, 0x00, 0x00, 0x00, 0x00, 0x00, 0x00, 0x00, 0x00, 0x00, 0x00, 
 0x00, 0x00, 0x00, 0x00, 0x01, 0x00, 0x00, 0x00, 0xb3, 0x94, 0x1f, 0x3c, 
 0x17, 0x00, 0x00, 0x00, 0x73, 0x65, 0x71, 0x75, 0x65, 0x6e, 0x74, 0x69, 
 0x61, 0x6c, 0x2f, 0x64, 0x65, 0x6e, 0x73, 0x65, 0x2f, 0x4d, 0x61, 0x74, 
 0x4d, 0x75, 0x6c, 0x00, 0x02, 0x00, 0x00, 0x00, 0x10, 0x00, 0x00, 0x00, 
 0x0d, 0x00, 0x00, 0x00, 0x46, 0xfe, 0xff, 0xff, 0x00, 0x00, 0x00, 0x01, 
 0x14, 0x00, 0x00, 0x00, 0x30, 0x00, 0x00, 0x00, 0x06, 0x00, 0x00, 0x00, 
 0x00, 0x00, 0x00, 0x02, 0x50, 0x00, 0x00, 0x00, 0x94, 0xfd, 0xff, 0xff, 
 0x08, 0x00, 0x00, 0x00, 0x10, 0x00, 0x00, 0x00, 0x01, 0x00, 0x00, 0x00, 
 0x00, 0x00, 0x00, 0x00, 0x00, 0x00, 0x00, 0x00, 0x01, 0x00, 0x00, 0x00, 
 0xb7, 0x21, 0xbe, 0x39, 0x27, 0x00, 0x00, 0x00, 0x73, 0x65, 0x71, 0x75, 
 0x65, 0x6e, 0x74, 0x69, 0x61, 0x6c, 0x2f, 0x64, 0x65, 0x6e, 0x73, 0x65, 
 0x2f, 0x42, 0x69, 0x61, 0x73, 0x41, 0x64, 0x64, 0x2f, 0x52, 0x65, 0x61, 
 0x64, 0x56, 0x61, 0x72, 0x69, 0x61, 0x62, 0x6c, 0x65, 0x4f, 0x70, 0x00, 
 0x01, 0x00, 0x00, 0x00, 0x10, 0x00, 0x00, 0x00, 0xb6, 0xfe, 0xff, 0xff, 
 0x00, 0x00, 0x00, 0x01, 0x14, 0x00, 0x00, 0x00, 0x30, 0x00, 0x00, 0x00, 
 0x05, 0x00, 0x00, 0x00, 0x00, 0x00, 0x00, 0x09, 0x44, 0x00, 0x00, 0x00, 
 0x04, 0xfe, 0xff, 0xff, 0x08, 0x00, 0x00, 0x00, 0x10, 0x00, 0x00, 0x00, 
 0x01, 0x00, 0x00, 0x00, 0x00, 0x00, 0x00, 0x00, 0x00, 0x00, 0x00, 0x00, 
 0x01, 0x00, 0x00, 0x00, 0x55, 0xc7, 0x80, 0x3c, 0x19, 0x00, 0x00, 0x00, 
 0x73, 0x65, 0x71, 0x75, 0x65, 0x6e, 0x74, 0x69, 0x61, 0x6c, 0x2f, 0x64, 
 0x65, 0x6e, 0x73, 0x65, 0x5f, 0x31, 0x2f, 0x4d, 0x61, 0x74, 0x4d, 0x75, 
 0x6c, 0x00, 0x00, 0x00, 0x02, 0x00, 0x00, 0x00, 0x08, 0x00, 0x00, 0x00, 
 0x10, 0x00, 0x00, 0x00, 0x1e, 0xff, 0xff, 0xff, 0x00, 0x00, 0x00, 0x01, 
 0x14, 0x00, 0x00, 0x00, 0x34, 0x00, 0x00, 0x00, 0x04, 0x00, 0x00, 0x00, 
 0x00, 0x00, 0x00, 0x02, 0x58, 0x00, 0x00, 0x00, 0x6c, 0xfe, 0xff, 0xff, 
 0x08, 0x00, 0x00, 0x00, 0x14, 0x00, 0x00, 0x00, 0x01, 0x00, 0x00, 0x00, 
 0x00, 0x00, 0x00, 0x00, 0x00, 0x00, 0x00, 0x00, 0x00, 0x00, 0x00, 0x00, 
 0x01, 0x00, 0x00, 0x00, 0xed, 0x84, 0xe4, 0x39, 0x29, 0x00, 0x00, 0x00, 
 0x73, 0x65, 0x71, 0x75, 0x65, 0x6e, 0x74, 0x69, 0x61, 0x6c, 0x2f, 0x64, 
 0x65, 0x6e, 0x73, 0x65, 0x5f, 0x31, 0x2f, 0x42, 0x69, 0x61, 0x73, 0x41, 
 0x64, 0x64, 0x2f, 0x52, 0x65, 0x61, 0x64, 0x56, 0x61, 0x72, 0x69, 0x61, 
 0x62, 0x6c, 0x65, 0x4f, 0x70, 0x00, 0x00, 0x00, 0x01, 0x00, 0x00, 0x00, 
 0x08, 0x00, 0x00, 0x00, 0x96, 0xff, 0xff, 0xff, 0x00, 0x00, 0x00, 0x01, 
 0x14, 0x00, 0x00, 0x00, 0x30, 0x00, 0x00, 0x00, 0x03, 0x00, 0x00, 0x00, 
 0x00, 0x00, 0x00, 0x09, 0x44, 0x00, 0x00, 0x00, 0xe4, 0xfe, 0xff, 0xff, 
 0x08, 0x00, 0x00, 0x00, 0x10, 0x00, 0x00, 0x00, 0x01, 0x00, 0x00, 0x00, 
 0x00, 0x00, 0x00, 0x00, 0x00, 0x00, 0x00, 0x00, 0x01, 0x00, 0x00, 0x00, 
 0xbc, 0x9e, 0xe0, 0x3c, 0x19, 0x00, 0x00, 0x00, 0x73, 0x65, 0x71, 0x75, 
 0x65, 0x6e, 0x74, 0x69, 0x61, 0x6c, 0x2f, 0x64, 0x65, 0x6e, 0x73, 0x65, 
 0x5f, 0x32, 0x2f, 0x4d, 0x61, 0x74, 0x4d, 0x75, 0x6c, 0x00, 0x00, 0x00, 
 0x02, 0x00, 0x00, 0x00, 0x03, 0x00, 0x00, 0x00, 0x08, 0x00, 0x00, 0x00, 
 0x00, 0x00, 0x16, 0x00, 0x1c, 0x00, 0x18, 0x00, 0x17, 0x00, 0x10, 0x00, 
 0x0c, 0x00, 0x08, 0x00, 0x00, 0x00, 0x00, 0x00, 0x00, 0x00, 0x07, 0x00, 
 0x16, 0x00, 0x00, 0x00, 0x00, 0x00, 0x00, 0x01, 0x14, 0x00, 0x00, 0x00, 
 0x30, 0x00, 0x00, 0x00, 0x02, 0x00, 0x00, 0x00, 0x00, 0x00, 0x00, 0x02, 
 0x54, 0x00, 0x00, 0x00, 0x64, 0xff, 0xff, 0xff, 0x08, 0x00, 0x00, 0x00, 
 0x10, 0x00, 0x00, 0x00, 0x01, 0x00, 0x00, 0x00, 0x00, 0x00, 0x00, 0x00, 
 0x00, 0x00, 0x00, 0x00, 0x01, 0x00, 0x00, 0x00, 0x90, 0x82, 0x02, 0x3b, 
 0x29, 0x00, 0x00, 0x00, 0x73, 0x65, 0x71, 0x75, 0x65, 0x6e, 0x74, 0x69, 
 0x61, 0x6c, 0x2f, 0x64, 0x65, 0x6e, 0x73, 0x65, 0x5f, 0x32, 0x2f, 0x42, 
 0x69, 0x61, 0x73, 0x41, 0x64, 0x64, 0x2f, 0x52, 0x65, 0x61, 0x64, 0x56, 
 0x61, 0x72, 0x69, 0x61, 0x62, 0x6c, 0x65, 0x4f, 0x70, 0x00, 0x00, 0x00, 
 0x01, 0x00, 0x00, 0x00, 0x03, 0x00, 0x00, 0x00, 0x00, 0x00, 0x16, 0x00, 
 0x20, 0x00, 0x1c, 0x00, 0x1b, 0x00, 0x14, 0x00, 0x10, 0x00, 0x0c, 0x00, 
 0x00, 0x00, 0x00, 0x00, 0x08, 0x00, 0x07, 0x00, 0x16, 0x00, 0x00, 0x00, 
 0x00, 0x00, 0x00, 0x01, 0x18, 0x00, 0x00, 0x00, 0x2c, 0x00, 0x00, 0x00, 
 0x48, 0x00, 0x00, 0x00, 0x01, 0x00, 0x00, 0x00, 0x00, 0x00, 0x00, 0x09, 
 0x60, 0x00, 0x00, 0x00, 0x02, 0x00, 0x00, 0x00, 0xff, 0xff, 0xff, 0xff, 
 0x0d, 0x00, 0x00, 0x00, 0x0c, 0x00, 0x0c, 0x00, 0x00, 0x00, 0x00, 0x00, 
 0x08, 0x00, 0x04, 0x00, 0x0c, 0x00, 0x00, 0x00, 0x08, 0x00, 0x00, 0x00, 
 0x10, 0x00, 0x00, 0x00, 0x01, 0x00, 0x00, 0x00, 0xc4, 0xff, 0xff, 0xff, 
 0xff, 0xff, 0xff, 0xff, 0x01, 0x00, 0x00, 0x00, 0x3f, 0x81, 0x18, 0x3d, 
 0x1d, 0x00, 0x00, 0x00, 0x73, 0x65, 0x72, 0x76, 0x69, 0x6e, 0x67, 0x5f, 
 0x64, 0x65, 0x66, 0x61, 0x75, 0x6c, 0x74, 0x5f, 0x64, 0x65, 0x6e, 0x73, 
 0x65, 0x5f, 0x69, 0x6e, 0x70, 0x75, 0x74, 0x3a, 0x30, 0x00, 0x00, 0x00, 
 0x02, 0x00, 0x00, 0x00, 0x01, 0x00, 0x00, 0x00, 0x0d, 0x00, 0x00, 0x00, 
 0x02, 0x00, 0x00, 0x00, 0x24, 0x00, 0x00, 0x00, 0x04, 0x00, 0x00, 0x00, 
 0xf0, 0xff, 0xff, 0xff, 0x19, 0x00, 0x00, 0x00, 0x02, 0x00, 0x00, 0x00, 
 0x00, 0x00, 0x00, 0x19, 0x0c, 0x00, 0x10, 0x00, 0x0f, 0x00, 0x00, 0x00, 
 0x08, 0x00, 0x04, 0x00, 0x0c, 0x00, 0x00, 0x00, 0x09, 0x00, 0x00, 0x00, 
 0x04, 0x00, 0x00, 0x00, 0x00, 0x00, 0x00, 0x09, 
};
const size_t model_data_len = sizeof(model_data);

#endif // MODEL_DATA_H
